<pad>	0
<unk>	0
<s>	0
</s>	0
[CLS]	0
[SEP]	0
[MASK]	0
de	-0
▁e	-1
▁de	-2
os	-3
▁l	-4
▁p	-5
▁c	-6
ar	-7
en	-8
er	-9
▁a	-10
es	-11
as	-12
on	-13
▁s	-14
ci	-15
or	-16
an	-17
ue	-18
ad	-19
▁m	-20
al	-21
▁en	-22
▁la	-23
in	-24
un	-25
▁t	-26
re	-27
▁y	-28
que	-29
st	-30
▁que	-31
ent	-32
▁el	-33
ic	-34
▁con	-35
ón	-36
▁un	-37
ro	-38
▁n	-39
ra	-40
om	-41
▁h	-42
id	-43
▁d	-44
ti	-45
▁f	-46
aci	-47
▁v	-48
▁se	-49
am	-50
▁E	-51
▁par	-52
te	-53
▁es	-54
ol	-55
▁los	-56
▁C	-57
▁est	-58
do	-59
le	-60
▁in	-61
▁re	-62
▁o	-63
to	-64
ta	-65
is	-66
▁su	-67
▁del	-68
ado	-69
▁A	-70
im	-71
▁com	-72
▁para	-73
▁P	-74
▁S	-75
ec	-76
res	-77
▁b	-78
▁al	-79
▁L	-80
▁por	-81
▁g	-82
il	-83
ación	-84
▁las	-85
ab	-86
▁M	-87
it	-88
▁una	-89
em	-90
ul	-91
..	-92
▁pro	-93
ente	-94
io	-95
qu	-96
ur	-97
ici	-98
ía	-99
ist	-100
tr	-101
ac	-102
ás	-103
ien	-104
el	-105
▁no	-106
ir	-107
ia	-108
▁D	-109
ones	-110
ig	-111
ada	-112
ter	-113
▁per	-114
uc	-115
▁me	-116
▁cu	-117
iz	-118
▁T	-119
lo	-120
la	-121
us	-122
idad	-123
ient	-124
▁des	-125
ción	-126
▁ac	-127
▁lo	-128
da	-129
▁2	-130
ier	-131
tiv	-132
ica	-133
▁1	-134
tos	-135
ues	-136
ib	-137
▁R	-138
iv	-139
ales	-140
▁to	-141
▁B	-142
▁(	-143
go	-144
ando	-145
orm	-146
▁más	-147
▁como	-148
▁ex	-149
aj	-150
ido	-151
cia	-152
oc	-153
tu	-154
▁N	-155
▁El	-156
▁G	-157
ico	-158
ida	-159
ados	-160
▁F	-161
▁pr	-162
ran	-163
▁I	-164
▁j	-165
bre	-166
án	-167
ud	-168
des	-169
po	-170
per	-171
ores	-172
▁ser	-173
▁ha	-174
▁La	-175
mo	-176
ed	-177
tes	-178
ante	-179
pa	-180
por	-181
ios	-182
▁an	-183
um	-184
▁tra	-185
...	-186
tra	-187
▁H	-188
den	-189
tro	-190
se	-191
ten	-192
tar	-193
▁so	-194
tor	-195
gu	-196
▁En	-197
ión	-198
▁V	-199
pe	-200
▁res	-201
▁U	-202
▁di	-203
▁20	-204
par	-205
uer	-206
iento	-207
▁pue	-208
tas	-209
▁po	-210
▁si	-211
ero	-212
▁im	-213
amb	-214
mp	-215
rec	-216
amos	-217
▁r	-218
▁dis	-219
▁ma	-220
▁J	-221
▁pre	-222
der	-223
▁sus	-224
▁qu	-225
▁este	-226
ma	-227
onal	-228
ño	-229
ca	-230
▁le	-231
uy	-232
▁Est	-233
▁ten	-234
era	-235
ez	-236
én	-237
▁as	-238
tre	-239
aciones	-240
ras	-241
▁rec	-242
▁“	-243
ho	-244
▁O	-245
ub	-246
▁ar	-247
dos	-248
gar	-249
ador	-250
uev	-251
00	-252
ños	-253
▁man	-254
aliz	-255
▁te	-256
▁hac	-257
duc	-258
▁comp	-259
les	-260
▁ca	-261
▁enc	-262
tros	-263
▁pa	-264
ust	-265
▁nues	-266
▁pres	-267
▁In	-268
adas	-269
▁esta	-270
ru	-271
co	-272
eg	-273
és	-274
▁tien	-275
ana	-276
amente	-277
lic	-278
ina	-279
ara	-280
▁Un	-281
emos	-282
gun	-283
fer	-284
▁pers	-285
form	-286
▁Es	-287
ers	-288
encia	-289
▁201	-290
▁ap	-291
▁mo	-292
tal	-293
▁Con	-294
▁pas	-295
▁ti	-296
las	-297
ento	-298
lan	-299
los	-300
di	-301
▁inter	-302
ambi	-303
ri	-304
▁son	-305
▁hab	-306
mente	-307
▁sin	-308
ch	-309
▁car	-310
▁cas	-311
▁col	-312
▁sobre	-313
▁tu	-314
baj	-315
ga	-316
mos	-317
ario	-318
▁ob	-319
▁pero	-320
za	-321
oci	-322
▁entre	-323
ens	-324
▁sol	-325
ora	-326
▁or	-327
▁lle	-328
ún	-329
pañ	-330
cul	-331
▁mej	-332
▁am	-333
cias	-334
▁3	-335
ces	-336
▁nuev	-337
eb	-338
icos	-339
no	-340
▁ver	-341
▁nos	-342
uch	-343
▁form	-344
icas	-345
og	-346
▁muy	-347
cl	-348
enta	-349
pon	-350
ciones	-351
▁"	-352
▁cons	-353
ona	-354
ide	-355
pos	-356
▁sal	-357
▁ya	-358
entes	-359
dr	-360
▁-	-361
▁mar	-362
▁todo	-363
ce	-364
til	-365
ambién	-366
▁prim	-367
av	-368
eces	-369
je	-370
ie	-371
▁cor	-372
das	-373
▁esc	-374
ín	-375
▁emp	-376
▁pos	-377
▁mis	-378
▁cre	-379
uen	-380
ut	-381
ías	-382
tivo	-383
▁cal	-384
jo	-385
ias	-386
gra	-387
idades	-388
▁Y	-389
ano	-390
▁trabaj	-391
fici	-392
if	-393
▁fin	-394
at	-395
▁ab	-396
▁mi	-397
antes	-398
able	-399
oy	-400
▁us	-401
tura	-402
▁está	-403
▁Al	-404
cial	-405
port	-406
▁gran	-407
idos	-408
▁deb	-409
ista	-410
itu	-411
ren	-412
▁desde	-413
▁años	-414
cion	-415
ven	-416
▁Los	-417
ís	-418
▁tan	-419
arios	-420
et	-421
asta	-422
ino	-423
ob	-424
amiento	-425
▁cl	-426
▁Se	-427
▁mejor	-428
▁med	-429
ing	-430
▁también	-431
▁Com	-432
cip	-433
emp	-434
qui	-435
▁De	-436
ará	-437
▁puede	-438
▁inform	-439
fec	-440
▁fue	-441
dad	-442
na	-443
jer	-444
esti	-445
▁todos	-446
▁mun	-447
min	-448
ros	-449
▁produc	-450
iendo	-451
cu	-452
▁4	-453
gen	-454
▁gra	-455
ita	-456
▁hacer	-457
▁dos	-458
▁em	-459
▁cual	-460
▁tiene	-461
▁ad	-462
▁don	-463
▁neces	-464
iden	-465
gan	-466
▁sig	-467
▁inv	-468
▁ni	-469
gr	-470
▁cam	-471
ición	-472
▁realiz	-473
vici	-474
▁hasta	-475
▁reg	-476
mas	-477
▁lu	-478
entos	-479
adores	-480
▁can	-481
▁ro	-482
▁ch	-483
tir	-484
▁No	-485
▁Re	-486
▁5	-487
pec	-488
▁person	-489
pres	-490
ay	-491
aron	-492
▁donde	-493
cio	-494
▁han	-495
erc	-496
tras	-497
▁An	-498
▁hay	-499
▁Mar	-500
más	-501
▁W	-502
▁may	-503
ver	-504
▁prop	-505
tica	-506
teri	-507
ito	-508
tiva	-509
acional	-510
▁tiem	-511
▁of	-512
▁Por	-513
me	-514
ener	-515
con	-516
ble	-517
quier	-518
▁buen	-519
arro	-520
ill	-521
▁espe	-522
▁cuando	-523
▁empres	-524
ivers	-525
▁tr	-526
▁¿	-527
ult	-528
ion	-529
▁lib	-530
▁parte	-531
▁fun	-532
),	-533
aba	-534
ual	-535
ja	-536
ve	-537
iones	-538
▁cos	-539
▁much	-540
uel	-541
▁men	-542
▁año	-543
▁u	-544
▁cada	-545
car	-546
▁tem	-547
▁San	-548
).	-549
▁algun	-550
zo	-551
▁forma	-552
urante	-553
man	-554
omb	-555
▁día	-556
ech	-557
▁bien	-558
▁Si	-559
▁ll	-560
ies	-561
gos	-562
ible	-563
▁Des	-564
▁w	-565
▁da	-566
▁fuer	-567
end	-568
▁servici	-569
▁tiempo	-570
eros	-571
▁pe	-572
▁ev	-573
▁así	-574
▁vez	-575
ea	-576
▁co	-577
ícul	-578
nos	-579
so	-580
▁Ch	-581
ular	-582
▁inst	-583
ió	-584
ér	-585
arrol	-586
▁tran	-587
▁ci	-588
paci	-589
udad	-590
demás	-591
itar	-592
unto	-593
lar	-594
▁Ar	-595
iente	-596
xim	-597
▁prof	-598
▁é	-599
úl	-600
▁Pro	-601
▁uno	-602
▁ay	-603
yec	-604
▁sab	-605
ura	-606
ientes	-607
tivos	-608
mi	-609
▁deci	-610
▁llev	-611
endo	-612
fic	-613
▁cer	-614
▁oc	-615
tin	-616
▁pol	-617
▁equi	-618
▁Las	-619
▁K	-620
▁ind	-621
ba	-622
▁incl	-623
bl	-624
arse	-625
idas	-626
▁pla	-627
▁reci	-628
▁imp	-629
▁vida	-630
últi	-631
▁sec	-632
ilidad	-633
entro	-634
▁personas	-635
▁comun	-636
▁vis	-637
almente	-638
▁seg	-639
éc	-640
▁desp	-641
▁19	-642
▁direc	-643
rib	-644
uego	-645
▁6	-646
▁encon	-647
▁segu	-648
▁min	-649
▁ter	-650
acion	-651
ña	-652
ine	-653
▁lugar	-654
▁mas	-655
▁ah	-656
cil	-657
▁Para	-658
ug	-659
▁actu	-660
▁podr	-661
▁...	-662
embre	-663
▁desarrol	-664
oco	-665
edad	-666
▁mundo	-667
▁hace	-668
ord	-669
▁plan	-670
ujer	-671
ena	-672
vi	-673
tel	-674
tiliz	-675
ientos	-676
▁difer	-677
▁As	-678
olog	-679
”,	-680
▁nuestro	-681
▁trans	-682
imiento	-683
▁contra	-684
cios	-685
▁import	-686
▁cr	-687
▁otros	-688
trar	-689
▁mes	-690
▁exper	-691
▁gener	-692
▁encu	-693
aje	-694
▁au	-695
▁bas	-696
▁porque	-697
eo	-698
cel	-699
▁rel	-700
ismo	-701
anos	-702
istas	-703
▁últi	-704
empre	-705
▁dist	-706
▁están	-707
▁trabajo	-708
pues	-709
ola	-710
▁Car	-711
▁país	-712
istem	-713
▁durante	-714
amil	-715
jos	-716
▁hor	-717
▁mom	-718
he	-719
incip	-720
▁mayor	-721
▁comple	-722
▁nuestra	-723
ucho	-724
anz	-725
▁pon	-726
cal	-727
▁cuenta	-728
▁bus	-729
▁her	-730
▁conf	-731
▁ciudad	-732
▁ra	-733
▁información	-734
▁den	-735
▁ofrec	-736
ús	-737
▁profes	-738
▁const	-739
▁estud	-740
uro	-741
▁proyec	-742
▁utiliz	-743
teg	-744
▁dest	-745
▁dise	-746
erv	-747
ít	-748
▁viv	-749
oria	-750
uda	-751
mpl	-752
▁princip	-753
miento	-754
▁solo	-755
▁nuevo	-756
▁mismo	-757
▁present	-758
itos	-759
▁gust	-760
▁Q	-761
▁có	-762
ama	-763
▁exp	-764
▁op	-765
▁pi	-766
all	-767
▁quier	-768
▁cualquier	-769
▁tar	-770
tado	-771
▁hist	-772
illa	-773
ital	-774
lec	-775
▁trav	-776
▁siempre	-777
▁tener	-778
▁tanto	-779
vo	-780
▁mucho	-781
▁ve	-782
▁fo	-783
tis	-784
ués	-785
br	-786
ombre	-787
▁val	-788
▁cab	-789
▁tras	-790
▁baj	-791
▁8	-792
ap	-793
▁Este	-794
▁7	-795
▁á	-796
tic	-797
▁parti	-798
▁pel	-799
tec	-800
▁super	-801
paña	-802
▁les	-803
▁activ	-804
▁Le	-805
bar	-806
ceso	-807
íst	-808
vis	-809
▁dic	-810
▁dej	-811
▁pub	-812
▁quien	-813
▁mujer	-814
ene	-815
echo	-816
▁z	-817
▁10	-818
com	-819
iencia	-820
!!	-821
▁pes	-822
ural	-823
ton	-824
ific	-825
du	-826
”.	-827
tido	-828
uras	-829
▁famil	-830
▁esper	-831
▁través	-832
▁pl	-833
eza	-834
gua	-835
▁todas	-836
▁tipo	-837
▁mon	-838
▁Su	-839
▁pues	-840
ard	-841
iar	-842
ok	-843
▁pueden	-844
ólo	-845
ían	-846
▁organ	-847
▁web	-848
▁9	-849
ieron	-850
▁apar	-851
ración	-852
imp	-853
▁sistem	-854
▁vol	-855
▁toda	-856
ruc	-857
▁sido	-858
▁¡	-859
▁momento	-860
ciales	-861
unque	-862
ancia	-863
▁,	-864
▁días	-865
ior	-866
▁poco	-867
alidad	-868
▁tom	-869
aria	-870
▁progra	-871
ha	-872
ución	-873
▁To	-874
úbl	-875
▁ven	-876
▁estos	-877
20	-878
▁inf	-879
▁ne	-880
▁ej	-881
itor	-882
and	-883
▁inc	-884
▁Me	-885
▁primera	-886
▁primer	-887
▁nuestros	-888
▁encuent	-889
ag	-890
omin	-891
▁inici	-892
▁var	-893
▁elec	-894
tico	-895
▁algo	-896
ece	-897
▁calidad	-898
ología	-899
▁especial	-900
▁ba	-901
▁gu	-902
quí	-903
▁equipo	-904
▁personal	-905
adr	-906
adora	-907
▁Z	-908
▁poder	-909
óm	-910
erg	-911
▁conoc	-912
▁sea	-913
▁sem	-914
▁obje	-915
vil	-916
▁ide	-917
imos	-918
und	-919
▁estar	-920
▁otro	-921
▁dar	-922
tamente	-923
▁sent	-924
ierno	-925
▁manera	-926
▁entr	-927
▁eso	-928
▁gru	-929
ele	-930
ác	-931
▁recib	-932
▁hoy	-933
▁fr	-934
▁ag	-935
▁aplic	-936
▁tres	-937
▁|	-938
igo	-939
▁200	-940
ería	-941
ip	-942
▁caso	-943
▁Col	-944
rar	-945
▁desc	-946
▁contin	-947
ío	-948
▁menos	-949
▁casa	-950
tó	-951
▁gan	-952
▁Par	-953
▁peque	-954
▁Esta	-955
ivel	-956
ala	-957
▁Una	-958
▁cap	-959
▁proble	-960
▁segun	-961
ám	-962
▁empresa	-963
▁amb	-964
zar	-965
▁haci	-966
tores	-967
▁ho	-968
▁k	-969
▁ahora	-970
▁conv	-971
▁fal	-972
inas	-973
ES	-974
▁X	-975
tam	-976
▁conoci	-977
ág	-978
▁unos	-979
oles	-980
▁color	-981
▁llam	-982
orn	-983
tan	-984
tac	-985
▁ins	-986
▁os	-987
▁nueva	-988
fr	-989
▁organiz	-990
▁permi	-991
eta	-992
▁tus	-993
tivas	-994
▁av	-995
▁tienen	-996
▁antes	-997
▁cur	-998
▁hi	-999
▁Cu	-1000
▁cómo	-1001
ilo	-1002
écn	-1003
uridad	-1004
▁ese	-1005
▁productos	-1006
ER	-1007
fru	-1008
▁def	-1009
▁compar	-1010
óg	-1011
eno	-1012
▁nivel	-1013
▁además	-1014
▁Ex	-1015
ecn	-1016
▁servicio	-1017
▁sub	-1018
▁va	-1019
▁he	-1020
uso	-1021
entar	-1022
▁después	-1023
000	-1024
▁Ma	-1025
▁hum	-1026
ern	-1027
ial	-1028
▁otras	-1029
▁Cas	-1030
▁dispon	-1031
▁pasado	-1032
▁result	-1033
▁Inter	-1034
▁ing	-1035
▁ir	-1036
▁datos	-1037
▁estado	-1038
porte	-1039
▁doc	-1040
▁mil	-1041
▁Am	-1042
▁#	-1043
▁será	-1044
▁pró	-1045
ot	-1046
▁comer	-1047
▁servicios	-1048
▁diferentes	-1049
tener	-1050
▁.	-1051
oca	-1052
abor	-1053
▁yo	-1054
ulo	-1055
▁2018	-1056
▁mill	-1057
▁ref	-1058
CI	-1059
ian	-1060
▁horas	-1061
▁Ac	-1062
▁15	-1063
▁era	-1064
idente	-1065
ono	-1066
ile	-1067
ric	-1068
▁apro	-1069
▁Lo	-1070
▁aut	-1071
▁fu	-1072
itas	-1073
uros	-1074
▁situ	-1075
▁public	-1076
gas	-1077
iciones	-1078
▁Bar	-1079
▁España	-1080
dic	-1081
▁estas	-1082
ór	-1083
ientras	-1084
▁intern	-1085
▁via	-1086
▁usu	-1087
úm	-1088
▁medio	-1089
▁bar	-1090
▁encontrar	-1091
▁hecho	-1092
aran	-1093
▁sistema	-1094
",	-1095
otros	-1096
▁sólo	-1097
▁DE	-1098
▁ante	-1099
OS	-1100
duci	-1101
▁Pa	-1102
▁ún	-1103
▁[	-1104
ál	-1105
▁Sal	-1106
▁espaci	-1107
▁esto	-1108
bol	-1109
▁–	-1110
▁mejores	-1111
sa	-1112
▁disfru	-1113
▁próxim	-1114
▁camb	-1115
▁pan	-1116
▁ayud	-1117
inos	-1118
▁merc	-1119
estig	-1120
ional	-1121
ep	-1122
▁pun	-1123
▁lar	-1124
▁Co	-1125
obierno	-1126
▁ban	-1127
▁Gu	-1128
▁ellos	-1129
▁uso	-1130
▁nat	-1131
tención	-1132
AR	-1133
▁total	-1134
dades	-1135
▁sigu	-1136
▁qué	-1137
▁otra	-1138
▁interes	-1139
sos	-1140
▁ig	-1141
quel	-1142
icip	-1143
cas	-1144
▁respon	-1145
▁conc	-1146
▁ade	-1147
▁experiencia	-1148
▁mal	-1149
uela	-1150
▁pal	-1151
segu	-1152
tio	-1153
tific	-1154
▁historia	-1155
▁Además	-1156
▁gr	-1157
terior	-1158
minist	-1159
▁muchos	-1160
▁0	-1161
▁aunque	-1162
▁qued	-1163
va	-1164
ite	-1165
pti	-1166
▁ofici	-1167
▁mode	-1168
avor	-1169
▁compañ	-1170
▁jug	-1171
▁importante	-1172
AS	-1173
▁millones	-1174
▁derec	-1175
▁Pero	-1176
▁má	-1177
▁puedes	-1178
▁efec	-1179
▁semana	-1180
EN	-1181
▁prov	-1182
ex	-1183
tación	-1184
ables	-1185
▁cele	-1186
mar	-1187
tá	-1188
▁final	-1189
▁instal	-1190
▁autor	-1191
▁Univers	-1192
▁pens	-1193
▁técn	-1194
▁for	-1195
▁rev	-1196
xico	-1197
ya	-1198
▁br	-1199
demos	-1200
▁proyecto	-1201
▁nada	-1202
▁Mé	-1203
▁on	-1204
adrid	-1205
▁ed	-1206
ace	-1207
▁continu	-1208
yo	-1209
▁tal	-1210
▁Cor	-1211
ológ	-1212
▁agua	-1213
ima	-1214
▁12	-1215
▁Sin	-1216
▁cent	-1217
▁econ	-1218
▁fá	-1219
eci	-1220
ON	-1221
▁tecn	-1222
▁españ	-1223
▁algunos	-1224
▁favor	-1225
▁particip	-1226
▁exist	-1227
▁Pr	-1228
od	-1229
cos	-1230
▁Val	-1231
▁medi	-1232
rea	-1233
▁pág	-1234
▁lleg	-1235
▁orig	-1236
AN	-1237
ire	-1238
▁(1	-1239
▁señ	-1240
▁ampl	-1241
▁grupo	-1242
pen	-1243
ula	-1244
▁núm	-1245
uerdo	-1246
▁diseño	-1247
▁esa	-1248
▁contro	-1249
▁pod	-1250
ach	-1251
rip	-1252
▁cier	-1253
▁aquí	-1254
▁18	-1255
".	-1256
íf	-1257
▁gracias	-1258
▁repres	-1259
▁Mo	-1260
▁minu	-1261
▁niños	-1262
af	-1263
ge	-1264
▁Man	-1265
▁empresas	-1266
cep	-1267
▁aquel	-1268
▁llegar	-1269
cer	-1270
▁decir	-1271
isión	-1272
▁sex	-1273
▁conocer	-1274
▁salud	-1275
▁/	-1276
▁cosas	-1277
áf	-1278
▁dentro	-1279
tidad	-1280
▁Or	-1281
▁públ	-1282
▁realizar	-1283
▁muchas	-1284
▁comunic	-1285
▁Nacional	-1286
jas	-1287
inar	-1288
▁desarrollo	-1289
▁vide	-1290
ela	-1291
▁debe	-1292
▁ju	-1293
▁Ju	-1294
▁Di	-1295
amp	-1296
▁trad	-1297
▁oper	-1298
▁zona	-1299
▁art	-1300
che	-1301
atro	-1302
graf	-1303
▁según	-1304
▁cin	-1305
sta	-1306
uestra	-1307
▁distin	-1308
▁contac	-1309
▁af	-1310
▁Seg	-1311
▁recon	-1312
can	-1313
ajes	-1314
▁Ser	-1315
ram	-1316
▁mientras	-1317
bo	-1318
▁embar	-1319
▁blo	-1320
ne	-1321
▁juego	-1322
▁lab	-1323
▁mujeres	-1324
▁div	-1325
▁san	-1326
ert	-1327
▁Mun	-1328
▁seguridad	-1329
unci	-1330
▁foto	-1331
▁clas	-1332
▁Madrid	-1333
▁apo	-1334
áp	-1335
▁espec	-1336
aban	-1337
ibles	-1338
eras	-1339
illo	-1340
▁jun	-1341
▁Pre	-1342
▁posible	-1343
▁investig	-1344
AL	-1345
tamiento	-1346
▁libro	-1347
▁cul	-1348
▁México	-1349
▁Dis	-1350
encias	-1351
▁dir	-1352
▁abr	-1353
cha	-1354
▁ello	-1355
▁perfec	-1356
oma	-1357
▁anti	-1358
OR	-1359
ares	-1360
▁Ca	-1361
▁grandes	-1362
acter	-1363
▁quer	-1364
....	-1365
▁Per	-1366
ersión	-1367
adre	-1368
▁nosotros	-1369
▁recom	-1370
sión	-1371
▁prepar	-1372
▁eleg	-1373
▁ejemp	-1374
▁precio	-1375
ñas	-1376
▁esp	-1377
isto	-1378
▁bajo	-1379
áb	-1380
▁sue	-1381
▁sino	-1382
▁nego	-1383
▁centro	-1384
▁había	-1385
▁educ	-1386
ibilidad	-1387
▁dec	-1388
▁inte	-1389
▁selec	-1390
▁gas	-1391
▁buena	-1392
▁materi	-1393
▁Como	-1394
estión	-1395
nas	-1396
▁estable	-1397
gent	-1398
iga	-1399
▁Res	-1400
irm	-1401
▁lín	-1402
▁tendr	-1403
▁él	-1404
uegos	-1405
▁neg	-1406
▁proceso	-1407
ira	-1408
est	-1409
▁especi	-1410
▁bo	-1411
▁programa	-1412
▁veces	-1413
▁cuer	-1414
▁dijo	-1415
▁detal	-1416
▁Intern	-1417
lam	-1418
▁Mon	-1419
▁30	-1420
▁bol	-1421
med	-1422
toria	-1423
▁anim	-1424
▁sen	-1425
▁ol	-1426
▁pu	-1427
▁vent	-1428
▁incluy	-1429
quil	-1430
▁2017	-1431
echa	-1432
201	-1433
▁sí	-1434
dera	-1435
nes	-1436
▁dispos	-1437
▁red	-1438
▁destac	-1439
tante	-1440
iene	-1441
▁mé	-1442
▁compro	-1443
▁persona	-1444
▁Ad	-1445
▁conten	-1446
iso	-1447
ativa	-1448
▁mercado	-1449
ículo	-1450
ibu	-1451
▁vuel	-1452
▁nombre	-1453
▁También	-1454
▁11	-1455
▁apren	-1456
▁ella	-1457
▁pin	-1458
▁embargo	-1459
▁Fran	-1460
▁Po	-1461
▁Ro	-1462
▁junto	-1463
mit	-1464
anto	-1465
▁Qu	-1466
▁mos	-1467
▁capaci	-1468
▁hacia	-1469
▁misma	-1470
cimiento	-1471
▁número	-1472
ítica	-1473
▁rep	-1474
▁familia	-1475
stitu	-1476
▁gente	-1477
.000	-1478
▁nav	-1479
▁local	-1480
entación	-1481
▁mús	-1482
▁general	-1483
arán	-1484
igos	-1485
▁cond	-1486
▁norm	-1487
▁Ap	-1488
éis	-1489
▁encuentra	-1490
portun	-1491
ización	-1492
line	-1493
▁alta	-1494
▁ust	-1495
▁fueron	-1496
▁social	-1497
▁Pol	-1498
▁sitio	-1499
cional	-1500
▁int	-1501
ticas	-1502
▁fácil	-1503
ticos	-1504
▁extra	-1505
seg	-1506
▁luego	-1507
▁habit	-1508
▁ale	-1509
▁ofrece	-1510
ivo	-1511
▁hemos	-1512
▁igual	-1513
ionales	-1514
▁alim	-1515
ort	-1516
▁tur	-1517
▁trata	-1518
▁et	-1519
▁natural	-1520
▁tenemos	-1521
▁clientes	-1522
▁Lu	-1523
imo	-1524
▁precios	-1525
▁regist	-1526
▁ley	-1527
▁unas	-1528
icion	-1529
▁Can	-1530
▁vi	-1531
▁meses	-1532
agen	-1533
▁funcion	-1534
osa	-1535
▁serie	-1536
▁minutos	-1537
▁corre	-1538
▁cambi	-1539
ueb	-1540
El	-1541
▁domin	-1542
ell	-1543
▁Euro	-1544
▁ub	-1545
oso	-1546
▁objetivo	-1547
▁tempor	-1548
▁dig	-1549
zón	-1550
up	-1551
▁din	-1552
aja	-1553
aro	-1554
▁ví	-1555
AD	-1556
▁dirig	-1557
▁actividades	-1558
ral	-1559
▁14	-1560
▁valor	-1561
▁permite	-1562
▁oportun	-1563
▁Med	-1564
▁compe	-1565
▁coment	-1566
IC	-1567
▁divers	-1568
inación	-1569
▁acuerdo	-1570
lica	-1571
▁punto	-1572
▁ráp	-1573
▁lí	-1574
▁sector	-1575
abric	-1576
▁pregun	-1577
▁hora	-1578
ecu	-1579
▁prác	-1580
ulta	-1581
dial	-1582
puesto	-1583
▁Jos	-1584
viembre	-1585
▁caracter	-1586
▁aum	-1587
▁electr	-1588
unca	-1589
ques	-1590
▁películ	-1591
lor	-1592
▁Sol	-1593
▁logr	-1594
▁espacio	-1595
▁Universidad	-1596
▁seguir	-1597
ensa	-1598
icia	-1599
ik	-1600
▁municip	-1601
▁Desde	-1602
▁Á	-1603
▁Min	-1604
▁consegu	-1605
isis	-1606
orte	-1607
abilidad	-1608
▁termin	-1609
...]	-1610
▁imagen	-1611
tubre	-1612
▁presidente	-1613
▁ped	-1614
gado	-1615
▁acom	-1616
emb	-1617
▁16	-1618
ded	-1619
▁priv	-1620
zas	-1621
▁sa	-1622
▁haber	-1623
▁partir	-1624
tera	-1625
▁amor	-1626
▁25	-1627
iedad	-1628
▁poner	-1629
▁env	-1630
▁ocas	-1631
▁producto	-1632
▁coci	-1633
▁alum	-1634
▁gratis	-1635
▁nuevos	-1636
▁emple	-1637
▁‘	-1638
▁fund	-1639
▁sac	-1640
▁orden	-1641
▁casi	-1642
▁cir	-1643
▁podemos	-1644
▁tel	-1645
La	-1646
▁Gra	-1647
pecto	-1648
eric	-1649
gres	-1650
▁comb	-1651
▁solici	-1652
ombres	-1653
pre	-1654
dan	-1655
▁página	-1656
▁100	-1657
▁:	-1658
eas	-1659
▁13	-1660
▁ubic	-1661
▁colec	-1662
▁etc	-1663
▁garan	-1664
▁respons	-1665
enefici	-1666
óvil	-1667
▁Tra	-1668
iva	-1669
▁marca	-1670
uerto	-1671
▁disfrutar	-1672
▁varios	-1673
▁mens	-1674
ister	-1675
▁comen	-1676
hos	-1677
▁económ	-1678
▁descar	-1679
ecer	-1680
▁cuatro	-1681
IN	-1682
▁indic	-1683
arlo	-1684
ef	-1685
▁mus	-1686
▁dif	-1687
ental	-1688
▁Pla	-1689
ulio	-1690
anci	-1691
▁fil	-1692
▁'	-1693
▁blan	-1694
▁Te	-1695
▁nov	-1696
▁prev	-1697
▁Ver	-1698
tegor	-1699
▁problemas	-1700
genes	-1701
▁saber	-1702
▁partido	-1703
anza	-1704
▁cumpl	-1705
ptiembre	-1706
▁simp	-1707
pel	-1708
▁promo	-1709
▁ejemplo	-1710
▁mano	-1711
▁2016	-1712
▁algunas	-1713
rado	-1714
gon	-1715
tiz	-1716
ferencia	-1717
▁paso	-1718
lex	-1719
omos	-1720
▁lado	-1721
rera	-1722
éf	-1723
▁puntos	-1724
▁origin	-1725
▁nuevas	-1726
▁[...]	-1727
▁largo	-1728
▁benefici	-1729
▁Cal	-1730
▁usuarios	-1731
▁tengo	-1732
alización	-1733
▁control	-1734
are	-1735
▁docum	-1736
▁faci	-1737
▁asist	-1738
▁sociales	-1739
▁atra	-1740
▁público	-1741
▁tema	-1742
▁terc	-1743
ider	-1744
▁cuerpo	-1745
▁24	-1746
▁piel	-1747
▁tele	-1748
▁Gran	-1749
elo	-1750
▁Yo	-1751
▁ayuda	-1752
▁noche	-1753
▁máxim	-1754
cis	-1755
izo	-1756
▁profesional	-1757
▁hombre	-1758
▁nacional	-1759
jar	-1760
▁encan	-1761
ond	-1762
▁atención	-1763
tando	-1764
-1	-1765
▁palab	-1766
▁nuestras	-1767
▁Soci	-1768
anas	-1769
ciden	-1770
ramient	-1771
segur	-1772
▁Esc	-1773
lu	-1774
ich	-1775
▁último	-1776
▁alguna	-1777
30	-1778
rito	-1779
▁expres	-1780
reg	-1781
ática	-1782
▁auto	-1783
ículos	-1784
▁coc	-1785
▁tienes	-1786
▁cambio	-1787
▁17	-1788
▁obra	-1789
orr	-1790
▁tex	-1791
▁incluso	-1792
▁energ	-1793
▁empe	-1794
ierra	-1795
ate	-1796
▁Buen	-1797
ack	-1798
▁base	-1799
▁caus	-1800
▁Cl	-1801
ducir	-1802
▁recur	-1803
titu	-1804
▁reun	-1805
iado	-1806
▁leg	-1807
usión	-1808
▁Estados	-1809
▁línea	-1810
gel	-1811
tada	-1812
▁noviembre	-1813
▁escrib	-1814
▁pare	-1815
▁afec	-1816
▁profesionales	-1817
▁usted	-1818
▁il	-1819
rucción	-1820
▁estaba	-1821
▁fac	-1822
▁modelo	-1823
rero	-1824
▁fotos	-1825
tion	-1826
▁nunca	-1827
▁Cuando	-1828
olución	-1829
eron	-1830
tados	-1831
uales	-1832
iano	-1833
▁relacion	-1834
▁fabric	-1835
▁aún	-1836
dap	-1837
▁sim	-1838
▁actividad	-1839
ñana	-1840
alo	-1841
▁Así	-1842
▁octubre	-1843
iera	-1844
forma	-1845
dida	-1846
▁ofer	-1847
▁mediante	-1848
onos	-1849
▁Tr	-1850
acionales	-1851
▁Unidos	-1852
▁busc	-1853
▁enfer	-1854
▁resultados	-1855
▁frente	-1856
▁asegur	-1857
▁estilo	-1858
one	-1859
▁próximo	-1860
▁sens	-1861
ánd	-1862
▁Cam	-1863
▁parece	-1864
turas	-1865
zos	-1866
ft	-1867
▁Pres	-1868
▁all	-1869
▁fuera	-1870
retar	-1871
bajo	-1872
▁explic	-1873
▁dedic	-1874
▁mov	-1875
urales	-1876
▁van	-1877
▁español	-1878
▁Juan	-1879
▁contr	-1880
▁venta	-1881
ísticas	-1882
▁partici	-1883
▁muer	-1884
dose	-1885
omía	-1886
izar	-1887
▁impres	-1888
▁defin	-1889
▁crear	-1890
▁sur	-1891
▁Gobierno	-1892
▁Cr	-1893
▁cerca	-1894
▁estudi	-1895
▁Rec	-1896
ítulo	-1897
fo	-1898
tección	-1899
▁siendo	-1900
▁pasar	-1901
▁colabor	-1902
▁Nuev	-1903
▁música	-1904
▁pueb	-1905
▁conj	-1906
▁iden	-1907
▁Reg	-1908
▁blog	-1909
ww	-1910
▁herramient	-1911
▁ejer	-1912
▁gusta	-1913
▁acompañ	-1914
▁administ	-1915
▁depor	-1916
▁septiembre	-1917
▁facil	-1918
ev	-1919
ber	-1920
▁indust	-1921
▁electrón	-1922
▁So	-1923
▁limp	-1924
▁vac	-1925
lado	-1926
▁siguiente	-1927
▁encontr	-1928
rac	-1929
▁ur	-1930
adio	-1931
torio	-1932
▁lanz	-1933
▁diseñ	-1934
▁online	-1935
▁dici	-1936
pas	-1937
▁soci	-1938
▁problema	-1939
▁Ci	-1940
▁real	-1941
▁deber	-1942
▁amigos	-1943
enas	-1944
▁sencil	-1945
▁conver	-1946
▁José	-1947
▁Direc	-1948
▁estudio	-1949
▁euros	-1950
▁ases	-1951
▁acceso	-1952
ear	-1953
▁And	-1954
▁segunda	-1955
ritor	-1956
▁proces	-1957
tiene	-1958
uesta	-1959
▁beb	-1960
alizar	-1961
emente	-1962
▁institu	-1963
▁x	-1964
▁relación	-1965
▁Bo	-1966
▁segundo	-1967
▁sor	-1968
▁sign	-1969
ts	-1970
▁rela	-1971
▁resta	-1972
▁adap	-1973
illas	-1974
pular	-1975
▁labor	-1976
▁pantal	-1977
▁2015	-1978
▁video	-1979
cur	-1980
TA	-1981
▁excel	-1982
▁jo	-1983
▁gen	-1984
clar	-1985
▁i	-1986
▁principal	-1987
▁veh	-1988
▁vo	-1989
▁univers	-1990
▁polít	-1991
▁situación	-1992
gentina	-1993
▁1.	-1994
▁alg	-1995
▁Gener	-1996
celona	-1997
▁Centro	-1998
van	-1999
crip	-2000
▁part	-2001
▁provin	-2002
▁celebr	-2003
una	-2004
▁teléf	-2005
uta	-2006
▁estu	-2007
▁mañana	-2008
cin	-2009
▁llevar	-2010
onas	-2011
▁temporada	-2012
érica	-2013
ágenes	-2014
cionar	-2015
tonces	-2016
tur	-2017
rez	-2018
▁gol	-2019
▁manten	-2020
▁fi	-2021
ice	-2022
▁integr	-2023
▁países	-2024
▁mejorar	-2025
mon	-2026
▁libre	-2027
▁estamos	-2028
▁incre	-2029
jes	-2030
▁fon	-2031
▁der	-2032
▁descub	-2033
ático	-2034
▁puer	-2035
adoras	-2036
▁er	-2037
▁just	-2038
▁Ay	-2039
▁acab	-2040
▁Pe	-2041
▁quienes	-2042
▁mol	-2043
▁recomend	-2044
▁financi	-2045
partam	-2046
ienda	-2047
dió	-2048
ple	-2049
Qu	-2050
▁dejar	-2051
▁proyectos	-2052
▁loc	-2053
icio	-2054
▁50	-2055
▁az	-2056
▁ayudar	-2057
▁Estado	-2058
▁plata	-2059
▁inclu	-2060
ps	-2061
aller	-2062
▁mor	-2063
ativo	-2064
nov	-2065
IS	-2066
iana	-2067
▁Pue	-2068
▁fel	-2069
puesta	-2070
▁dinero	-2071
▁propor	-2072
respon	-2073
▁papel	-2074
rio	-2075
diente	-2076
▁reconoci	-2077
▁edición	-2078
alu	-2079
▁aplicación	-2080
.-	-2081
irá	-2082
▁perio	-2083
▁Go	-2084
dido	-2085
termin	-2086
▁Fac	-2087
▁Emp	-2088
▁ofrecer	-2089
tran	-2090
▁Ten	-2091
▁arti	-2092
▁verdad	-2093
ves	-2094
▁estra	-2095
▁«	-2096
ced	-2097
▁cabo	-2098
▁Sec	-2099
turo	-2100
▁Mi	-2101
▁necesario	-2102
50	-2103
ilar	-2104
icidad	-2105
▁categor	-2106
tamos	-2107
visión	-2108
▁elem	-2109
▁fran	-2110
▁contacto	-2111
▁tarde	-2112
ifica	-2113
▁tecnología	-2114
icional	-2115
▁comunidad	-2116
▁and	-2117
▁móvil	-2118
▁Cons	-2119
gue	-2120
▁alto	-2121
▁falta	-2122
iernes	-2123
▁Ah	-2124
ciona	-2125
ment	-2126
úb	-2127
▁señal	-2128
TE	-2129
ñad	-2130
▁algún	-2131
vid	-2132
▁Ya	-2133
tt	-2134
▁varias	-2135
ticias	-2136
▁21	-2137
iencias	-2138
▁realidad	-2139
▁imágenes	-2140
▁producción	-2141
▁moder	-2142
oro	-2143
▁podría	-2144
uper	-2145
▁aj	-2146
▁Ho	-2147
imientos	-2148
iza	-2149
reci	-2150
▁condiciones	-2151
▁fecha	-2152
▁simple	-2153
▁lec	-2154
▁redes	-2155
▁director	-2156
▁acep	-2157
▁Fe	-2158
ome	-2159
▁comprar	-2160
▁conseguir	-2161
venes	-2162
▁entrada	-2163
▁investigación	-2164
ucha	-2165
mac	-2166
▁sos	-2167
enci	-2168
▁aire	-2169
▁interior	-2170
ind	-2171
▁puesto	-2172
dencia	-2173
▁formación	-2174
▁abier	-2175
▁fan	-2176
iter	-2177
tero	-2178
▁único	-2179
▁compañía	-2180
▁Jo	-2181
▁últimos	-2182
▁envi	-2183
▁idea	-2184
▁contar	-2185
▁dese	-2186
II	-2187
▁Barcelona	-2188
▁encar	-2189
▁junio	-2190
▁julio	-2191
▁mag	-2192
posición	-2193
▁evento	-2194
ducción	-2195
▁prob	-2196
mb	-2197
aría	-2198
▁luz	-2199
▁gobierno	-2200
▁internacional	-2201
▁Pal	-2202
▁cinco	-2203
▁repar	-2204
▁at	-2205
▁cuar	-2206
▁inde	-2207
▁juegos	-2208
tividad	-2209
▁2014	-2210
ilidades	-2211
▁hizo	-2212
▁oportunidad	-2213
▁hacen	-2214
▁mayo	-2215
▁poten	-2216
▁seguro	-2217
▁is	-2218
ivos	-2219
mientos	-2220
▁éx	-2221
▁correspon	-2222
gosto	-2223
▁conven	-2224
ulti	-2225
▁diciembre	-2226
▁curso	-2227
▁Is	-2228
ign	-2229
▁principales	-2230
▁méd	-2231
ién	-2232
▁miemb	-2233
▁equipos	-2234
▁gratu	-2235
▁obtener	-2236
▁anunci	-2237
▁capacidad	-2238
▁comprom	-2239
:00	-2240
adres	-2241
etas	-2242
▁bal	-2243
▁bel	-2244
ID	-2245
clus	-2246
itivo	-2247
ulos	-2248
▁cantidad	-2249
acer	-2250
amientos	-2251
▁Que	-2252
acción	-2253
▁modo	-2254
▁pobl	-2255
▁ocur	-2256
▁fies	-2257
▁ingres	-2258
stas	-2259
▁tor	-2260
▁participar	-2261
▁familiar	-2262
arias	-2263
pi	-2264
▁mayoría	-2265
▁colores	-2266
▁Son	-2267
▁joven	-2268
unes	-2269
lio	-2270
óvenes	-2271
▁cla	-2272
▁última	-2273
isterio	-2274
▁Bol	-2275
▁Gar	-2276
▁película	-2277
▁Ciudad	-2278
▁gestión	-2279
▁vir	-2280
ban	-2281
▁autom	-2282
▁emo	-2283
▁Ne	-2284
▁Comun	-2285
▁Mor	-2286
▁necesidades	-2287
▁Educ	-2288
▁cocina	-2289
▁represent	-2290
▁usar	-2291
▁adecu	-2292
ociación	-2293
▁(2	-2294
dez	-2295
stico	-2296
▁estoy	-2297
▁agr	-2298
▁vel	-2299
ria	-2300
uls	-2301
tien	-2302
ueba	-2303
▁invit	-2304
iles	-2305
▁dice	-2306
▁prem	-2307
▁versión	-2308
ística	-2309
▁mantener	-2310
isa	-2311
iste	-2312
úblic	-2313
her	-2314
rel	-2315
▁hombres	-2316
▁obl	-2317
osp	-2318
▁paci	-2319
ticular	-2320
▁aud	-2321
▁Dios	-2322
ár	-2323
▁sáb	-2324
▁General	-2325
tió	-2326
▁solu	-2327
▁resultado	-2328
▁utilizar	-2329
▁Lib	-2330
▁ense	-2331
▁viernes	-2332
▁trabajar	-2333
tagon	-2334
▁Entre	-2335
RA	-2336
▁ta	-2337
▁calle	-2338
▁conside	-2339
orpor	-2340
▁viol	-2341
ines	-2342
▁determin	-2343
▁*	-2344
▁ries	-2345
▁inten	-2346
▁encuentro	-2347
xic	-2348
▁ejerci	-2349
ÓN	-2350
▁víde	-2351
ificación	-2352
▁tama	-2353
▁visit	-2354
▁dirección	-2355
ebrero	-2356
uración	-2357
az	-2358
ruz	-2359
red	-2360
▁cuid	-2361
▁apoyo	-2362
▁22	-2363
▁tit	-2364
ós	-2365
▁celeb	-2366
dedor	-2367
▁post	-2368
▁primero	-2369
▁casos	-2370
▁fís	-2371
▁duda	-2372
▁propio	-2373
erca	-2374
▁Argentina	-2375
▁grande	-2376
echos	-2377
▁comenz	-2378
▁temas	-2379
▁Institu	-2380
▁ellas	-2381
quis	-2382
▁pueda	-2383
ste	-2384
▁quiere	-2385
▁Ab	-2386
▁Hoy	-2387
var	-2388
adamente	-2389
▁muestra	-2390
▁lleva	-2391
ket	-2392
▁jorn	-2393
▁hotel	-2394
▁tratamiento	-2395
▁recuper	-2396
▁Servici	-2397
terna	-2398
rim	-2399
▁bastante	-2400
▁usuario	-2401
▁tomar	-2402
▁entren	-2403
bal	-2404
▁debido	-2405
▁política	-2406
ezas	-2407
▁marzo	-2408
▁obs	-2409
▁viaje	-2410
▁Más	-2411
▁conci	-2412
▁cliente	-2413
▁conte	-2414
áfico	-2415
guien	-2416
tender	-2417
▁vista	-2418
▁teléfono	-2419
li	-2420
itur	-2421
son	-2422
▁futuro	-2423
▁edi	-2424
▁importantes	-2425
▁edad	-2426
▁presente	-2427
▁fir	-2428
▁jóvenes	-2429
be	-2430
▁respecto	-2431
▁sociedad	-2432
▁declar	-2433
▁abril	-2434
ingún	-2435
▁Hay	-2436
ger	-2437
▁bueno	-2438
▁carrera	-2439
▁2013	-2440
▁Santa	-2441
cido	-2442
uye	-2443
▁añad	-2444
▁cuanto	-2445
▁correo	-2446
ware	-2447
▁comien	-2448
▁derechos	-2449
▁entonces	-2450
▁perman	-2451
▁haciendo	-2452
▁evitar	-2453
aca	-2454
▁alc	-2455
ook	-2456
▁Según	-2457
▁popular	-2458
▁soy	-2459
▁reserv	-2460
tería	-2461
tón	-2462
icamente	-2463
▁enfr	-2464
▁esté	-2465
▁pueblo	-2466
▁dia	-2467
▁comunicación	-2468
▁actual	-2469
del	-2470
▁esf	-2471
omas	-2472
▁Nav	-2473
▁distrib	-2474
▁anterior	-2475
▁agu	-2476
▁Hola	-2477
▁Fin	-2478
OM	-2479
ase	-2480
▁Ban	-2481
▁199	-2482
▁conec	-2483
▁inm	-2484
torno	-2485
▁mir	-2486
álisis	-2487
▁cuales	-2488
acto	-2489
unta	-2490
ública	-2491
ila	-2492
udo	-2493
10	-2494
▁lin	-2495
remos	-2496
▁consul	-2497
▁enero	-2498
▁gal	-2499
olo	-2500
lés	-2501
▁vamos	-2502
▁camino	-2503
▁dob	-2504
dero	-2505
▁decor	-2506
▁elim	-2507
▁sigue	-2508
▁innov	-2509
▁capital	-2510
▁medios	-2511
▁lim	-2512
▁2.	-2513
▁elabor	-2514
ror	-2515
▁fotograf	-2516
▁ses	-2517
▁ningún	-2518
▁Ale	-2519
▁compartir	-2520
▁volver	-2521
▁protagon	-2522
▁podrás	-2523
▁claro	-2524
vía	-2525
▁Gracias	-2526
lares	-2527
ingun	-2528
▁lista	-2529
▁sentido	-2530
culo	-2531
▁deben	-2532
▁obras	-2533
▁jugar	-2534
▁Nues	-2535
▁material	-2536
OL	-2537
AM	-2538
porta	-2539
▁busca	-2540
▁agosto	-2541
▁área	-2542
▁naci	-2543
▁medida	-2544
▁construcción	-2545
▁bon	-2546
▁opción	-2547
▁arch	-2548
▁necesita	-2549
▁The	-2550
▁$	-2551
▁éxito	-2552
▁consider	-2553
▁habr	-2554
▁particular	-2555
▁correc	-2556
▁alcanz	-2557
ogle	-2558
▁recursos	-2559
▁Carlos	-2560
th	-2561
irse	-2562
▁ambiente	-2563
ceder	-2564
ieza	-2565
▁Nos	-2566
▁descu	-2567
▁Pas	-2568
▁tuvo	-2569
▁incorpor	-2570
▁40	-2571
▁mez	-2572
▁Ob	-2573
▁ocu	-2574
edor	-2575
media	-2576
▁haya	-2577
▁cub	-2578
▁desarroll	-2579
ws	-2580
▁oficial	-2581
reto	-2582
▁podrá	-2583
No	-2584
ecen	-2585
▁derecho	-2586
umo	-2587
▁tendrá	-2588
▁Plan	-2589
icía	-2590
▁permit	-2591
ork	-2592
▁palabras	-2593
▁pequeño	-2594
▁esos	-2595
▁escuch	-2596
▁interés	-2597
pir	-2598
▁campo	-2599
ém	-2600
▁2012	-2601
▁energía	-2602
▁tenía	-2603
ical	-2604
pone	-2605
éctr	-2606
▁sábado	-2607
▁propia	-2608
▁contenido	-2609
imon	-2610
▁resto	-2611
tia	-2612
▁pantalla	-2613
ke	-2614
▁cora	-2615
▁detalles	-2616
▁María	-2617
▁dicho	-2618
eria	-2619
▁seman	-2620
▁cult	-2621
▁arte	-2622
▁Esto	-2623
ong	-2624
▁verano	-2625
▁estruc	-2626
ED	-2627
▁conjunto	-2628
▁Ba	-2629
olu	-2630
▁Colomb	-2631
pera	-2632
▁leer	-2633
Es	-2634
▁pron	-2635
partamento	-2636
▁hablar	-2637
▁negocio	-2638
pl	-2639
pro	-2640
▁record	-2641
EC	-2642
▁necesit	-2643
▁domingo	-2644
leg	-2645
ianza	-2646
▁viene	-2647
▁23	-2648
▁dem	-2649
En	-2650
▁poc	-2651
vech	-2652
▁libros	-2653
▁entrega	-2654
▁Ahora	-2655
▁cuent	-2656
▁compra	-2657
▁Tras	-2658
TI	-2659
▁recibir	-2660
▁serán	-2661
ír	-2662
▁estudiantes	-2663
▁febrero	-2664
▁metros	-2665
▁lig	-2666
gre	-2667
▁Prim	-2668
ámara	-2669
▁taller	-2670
▁+	-2671
okies	-2672
▁ningun	-2673
▁Au	-2674
▁dó	-2675
▁Del	-2676
ebook	-2677
▁creo	-2678
▁Luis	-2679
▁Europa	-2680
▁participación	-2681
▁opciones	-2682
americ	-2683
▁exclus	-2684
▁Internet	-2685
▁Ven	-2686
▁perf	-2687
▁primeros	-2688
▁mer	-2689
ulación	-2690
ck	-2691
▁manif	-2692
tín	-2693
pren	-2694
ueves	-2695
cular	-2696
▁pesar	-2697
iel	-2698
▁patr	-2699
▁materiales	-2700
reas	-2701
▁especialmente	-2702
izado	-2703
▁Her	-2704
//	-2705
rup	-2706
▁sexo	-2707
▁aquellos	-2708
tino	-2709
▁significa	-2710
▁quieres	-2711
ivid	-2712
▁enseñ	-2713
▁posibilidad	-2714
▁Internacional	-2715
▁especializ	-2716
▁sir	-2717
▁alguien	-2718
▁ideal	-2719
trás	-2720
▁enl	-2721
▁alre	-2722
▁naveg	-2723
▁totalmente	-2724
adie	-2725
▁acces	-2726
▁dol	-2727
▁presencia	-2728
▁ajust	-2729
▁dibu	-2730
ulas	-2731
vención	-2732
▁artículo	-2733
▁pen	-2734
▁vig	-2735
▁agra	-2736
men	-2737
▁públic	-2738
▁cara	-2739
▁completo	-2740
tique	-2741
▁Todos	-2742
▁difí	-2743
▁fundam	-2744
via	-2745
wit	-2746
▁bás	-2747
entemente	-2748
▁acciones	-2749
▁hogar	-2750
▁disponible	-2751
▁acción	-2752
▁PR	-2753
▁tamaño	-2754
▁Desp	-2755
▁visto	-2756
▁manos	-2757
ole	-2758
ómo	-2759
▁cerc	-2760
▁cob	-2761
▁educación	-2762
taron	-2763
▁Cab	-2764
▁Super	-2765
▁madre	-2766
▁tienda	-2767
▁Ind	-2768
▁vas	-2769
idores	-2770
íamos	-2771
▁hijos	-2772
▁dom	-2773
▁cambiar	-2774
▁organización	-2775
▁za	-2776
▁mater	-2777
▁original	-2778
ph	-2779
▁proteg	-2780
▁incluye	-2781
igu	-2782
▁lunes	-2783
▁fuerte	-2784
▁puedan	-2785
▁conduc	-2786
tilla	-2787
▁Durante	-2788
uelo	-2789
▁ace	-2790
▁buscar	-2791
▁Fo	-2792
▁dio	-2793
▁Salud	-2794
úsque	-2795
▁cel	-2796
quina	-2797
▁superior	-2798
▁pis	-2799
▁preoc	-2800
▁consum	-2801
▁alumnos	-2802
▁hub	-2803
▁concep	-2804
▁refer	-2805
ee	-2806
▁coloc	-2807
▁prueba	-2808
▁coche	-2809
▁demás	-2810
▁sean	-2811
metros	-2812
▁IN	-2813
▁abs	-2814
▁visita	-2815
tim	-2816
▁dado	-2817
ato	-2818
▁Ed	-2819
tbol	-2820
▁recorr	-2821
▁pier	-2822
▁continuación	-2823
://	-2824
▁habl	-2825
itivos	-2826
▁elementos	-2827
▁provincia	-2828
EL	-2829
▁Aunque	-2830
▁necesidad	-2831
▁Fern	-2832
bles	-2833
digo	-2834
▁resist	-2835
▁cargo	-2836
▁Conse	-2837
rum	-2838
ultura	-2839
▁pareja	-2840
ardo	-2841
▁recog	-2842
▁respe	-2843
▁Todo	-2844
▁queda	-2845
▁desa	-2846
té	-2847
▁Mas	-2848
▁fe	-2849
▁Jes	-2850
▁respuesta	-2851
▁Inform	-2852
▁opin	-2853
▁monta	-2854
arte	-2855
▁mucha	-2856
▁características	-2857
AC	-2858
▁pasa	-2859
▁Educación	-2860
▁tenido	-2861
estiv	-2862
▁grupos	-2863
ivil	-2864
▁Cap	-2865
greso	-2866
▁Cent	-2867
▁trabajos	-2868
▁identific	-2869
▁Inv	-2870
▁individ	-2871
inado	-2872
▁kil	-2873
ancias	-2874
▁pud	-2875
▁observ	-2876
aces	-2877
este	-2878
▁ps	-2879
▁tarje	-2880
ándose	-2881
▁Sa	-2882
CIÓN	-2883
teriores	-2884
▁descon	-2885
▁Ley	-2886
▁sistemas	-2887
▁lugares	-2888
▁marc	-2889
▁Cre	-2890
▁disco	-2891
▁num	-2892
▁id	-2893
▁Tor	-2894
▁Ter	-2895
ance	-2896
▁satis	-2897
▁descubr	-2898
eso	-2899
!!!	-2900
dific	-2901
útbol	-2902
úa	-2903
▁negro	-2904
tual	-2905
▁esfuer	-2906
cho	-2907
▁LA	-2908
▁Real	-2909
▁len	-2910
▁Colombia	-2911
utr	-2912
▁protección	-2913
▁estudios	-2914
pend	-2915
fe	-2916
▁pago	-2917
▁categoría	-2918
tiles	-2919
▁mad	-2920
▁media	-2921
▁presenta	-2922
▁club	-2923
▁padres	-2924
▁acerca	-2925
▁baño	-2926
▁excelente	-2927
▁encuentran	-2928
▁tér	-2929
▁Mus	-2930
▁28	-2931
▁edifici	-2932
▁siglo	-2933
▁May	-2934
▁has	-2935
▁ó	-2936
para	-2937
coles	-2938
▁jugadores	-2939
▁aprovech	-2940
▁mín	-2941
1.	-2942
íos	-2943
dica	-2944
▁pequeños	-2945
▁publ	-2946
▁Ministerio	-2947
▁blanco	-2948
▁clás	-2949
ficiente	-2950
▁cambios	-2951
▁única	-2952
IA	-2953
▁cierto	-2954
▁vin	-2955
▁crecimiento	-2956
▁región	-2957
▁fig	-2958
▁veci	-2959
▁eléctr	-2960
▁ES	-2961
▁Os	-2962
▁muerte	-2963
ron	-2964
▁vic	-2965
▁estrateg	-2966
▁cultura	-2967
portar	-2968
tivamente	-2969
▁búsque	-2970
udas	-2971
ientíf	-2972
▁permitir	-2973
▁electrónico	-2974
▁función	-2975
ner	-2976
▁salir	-2977
▁jornada	-2978
▁jueves	-2979
▁Em	-2980
▁hacerlo	-2981
▁máximo	-2982
▁perten	-2983
quitec	-2984
▁mundial	-2985
▁Red	-2986
uerra	-2987
▁&	-2988
▁q	-2989
▁moda	-2990
▁60	-2991
vent	-2992
/201	-2993
▁espera	-2994
▁exig	-2995
cripción	-2996
▁presu	-2997
illos	-2998
ospital	-2999
▁requier	-3000
▁Google	-3001
tina	-3002
▁fis	-3003
▁puedo	-3004
TO	-3005
▁the	-3006
▁Municip	-3007
▁población	-3008
▁US	-3009
tora	-3010
▁Después	-3011
▁26	-3012
▁mic	-3013
▁euro	-3014
áticos	-3015
▁avanz	-3016
▁enci	-3017
apa	-3018
2.	-3019
itación	-3020
▁descargar	-3021
▁Ha	-3022
▁ép	-3023
▁capa	-3024
▁selección	-3025
▁27	-3026
99	-3027
▁»	-3028
antil	-3029
istro	-3030
▁planta	-3031
▁realmente	-3032
umen	-3033
▁instalaciones	-3034
rió	-3035
▁aplicaciones	-3036
▁corazón	-3037
tiendo	-3038
▁histór	-3039
▁campaña	-3040
▁inglés	-3041
▁siguientes	-3042
▁conse	-3043
ológico	-3044
untamiento	-3045
▁anun	-3046
▁Ol	-3047
ari	-3048
ércoles	-3049
▁mayores	-3050
ry	-3051
▁enferm	-3052
quir	-3053
▁demas	-3054
▁fru	-3055
▁jur	-3056
▁presentación	-3057
▁dorm	-3058
▁mara	-3059
▁Der	-3060
▁Cos	-3061
▁vari	-3062
▁Ag	-3063
▁hijo	-3064
▁vivir	-3065
▁zapa	-3066
itario	-3067
▁mane	-3068
▁herramientas	-3069
lea	-3070
▁quiero	-3071
▁constru	-3072
▁imag	-3073
▁ambos	-3074
▁ideas	-3075
▁demos	-3076
diz	-3077
▁tro	-3078
▁cabeza	-3079
▁Chile	-3080
▁cosa	-3081
▁Instituto	-3082
▁Mic	-3083
aremos	-3084
▁dólares	-3085
▁Gal	-3086
él	-3087
hu	-3088
ires	-3089
▁Mundial	-3090
▁riesgo	-3091
▁sorpren	-3092
▁sería	-3093
telig	-3094
.,	-3095
▁mem	-3096
▁distintos	-3097
▁cookies	-3098
▁exten	-3099
▁realizado	-3100
▁nadie	-3101
▁amplia	-3102
▁importancia	-3103
▁tierra	-3104
ix	-3105
rag	-3106
▁Tur	-3107
▁•	-3108
▁pul	-3109
▁análisis	-3110
▁jue	-3111
cla	-3112
▁Rep	-3113
▁momentos	-3114
▁ata	-3115
tadas	-3116
▁ib	-3117
ff	-3118
▁conocimiento	-3119
▁completa	-3120
--	-3121
itado	-3122
▁marco	-3123
1,	-3124
erto	-3125
▁Día	-3126
▁veloci	-3127
▁título	-3128
▁llega	-3129
▁ocasión	-3130
ete	-3131
▁modelos	-3132
▁ahí	-3133
▁Casa	-3134
mento	-3135
▁Ped	-3136
put	-3137
tario	-3138
esa	-3139
▁miembros	-3140
cle	-3141
iro	-3142
igue	-3143
▁seis	-3144
▁Hab	-3145
▁Nueva	-3146
▁hom	-3147
olver	-3148
ativos	-3149
▁fuerza	-3150
▁elegir	-3151
▁compromiso	-3152
Qué	-3153
▁plazo	-3154
▁creación	-3155
estr	-3156
▁medidas	-3157
▁htt	-3158
▁orient	-3159
▁Martín	-3160
▁deman	-3161
hib	-3162
▁digital	-3163
▁semanas	-3164
▁peso	-3165
genier	-3166
fes	-3167
▁propie	-3168
▁esas	-3169
▁regres	-3170
ró	-3171
▁zonas	-3172
▁oblig	-3173
▁>	-3174
▁sum	-3175
▁apoy	-3176
▁hermos	-3177
dio	-3178
▁cic	-3179
reno	-3180
▁rend	-3181
2,	-3182
▁ciento	-3183
▁aprender	-3184
tales	-3185
▁asoci	-3186
ka	-3187
▁crist	-3188
▁mostr	-3189
▁pequeña	-3190
▁intro	-3191
▁mexic	-3192
▁famos	-3193
laz	-3194
witter	-3195
▁clic	-3196
▁Anton	-3197
uestas	-3198
▁perfecto	-3199
tios	-3200
Con	-3201
▁menor	-3202
▁plante	-3203
▁ves	-3204
▁Fund	-3205
▁estrel	-3206
edra	-3207
recu	-3208
▁Cada	-3209
ordin	-3210
table	-3211
ello	-3212
▁baja	-3213
aco	-3214
▁Pos	-3215
▁Pan	-3216
ónica	-3217
ity	-3218
▁cump	-3219
▁salida	-3220
▁alrededor	-3221
▁Mig	-3222
▁conserv	-3223
▁banda	-3224
ritorio	-3225
▁convertir	-3226
▁fondo	-3227
▁podrán	-3228
▁programas	-3229
cía	-3230
▁candida	-3231
enos	-3232
▁sabe	-3233
▁Asociación	-3234
▁perder	-3235
▁cine	-3236
▁partes	-3237
▁atrac	-3238
▁eventos	-3239
▁fol	-3240
▁encontra	-3241
▁mismos	-3242
▁búsqueda	-3243
▁tab	-3244
▁comentarios	-3245
▁distintas	-3246
▁suav	-3247
▁Ros	-3248
igh	-3249
▁familias	-3250
▁comida	-3251
mán	-3252
▁difícil	-3253
▁sust	-3254
▁go	-3255
▁almac	-3256
tía	-3257
▁voy	-3258
▁solución	-3259
si	-3260
▁somos	-3261
lante	-3262
▁soluciones	-3263
▁doble	-3264
▁Tran	-3265
dena	-3266
▁depen	-3267
▁tritur	-3268
▁buscando	-3269
▁Desarrol	-3270
▁transporte	-3271
▁internet	-3272
▁pros	-3273
▁concur	-3274
▁oferta	-3275
▁EN	-3276
▁aproxim	-3277
▁colección	-3278
▁madera	-3279
ím	-3280
▁tenga	-3281
▁dev	-3282
▁clase	-3283
60	-3284
▁2010	-3285
▁padre	-3286
ioso	-3287
▁comercial	-3288
▁azul	-3289
▁mensaje	-3290
▁miércoles	-3291
▁América	-3292
vista	-3293
▁formas	-3294
vieron	-3295
ega	-3296
▁directamente	-3297
▁entorno	-3298
▁agrade	-3299
▁vídeo	-3300
▁considera	-3301
▁Francis	-3302
▁todavía	-3303
▁antigu	-3304
▁eta	-3305
▁mec	-3306
▁verda	-3307
▁Social	-3308
pez	-3309
▁autoridades	-3310
pan	-3311
▁procesos	-3312
▁desarrollar	-3313
▁fiesta	-3314
estival	-3315
ale	-3316
ést	-3317
▁bor	-3318
▁superfici	-3319
dar	-3320
ly	-3321
▁práctica	-3322
▁vers	-3323
logo	-3324
▁locales	-3325
ftware	-3326
▁Sus	-3327
oj	-3328
▁mí	-3329
▁dan	-3330
ologías	-3331
abil	-3332
▁ayer	-3333
aya	-3334
▁gob	-3335
▁disc	-3336
▁actualiz	-3337
UR	-3338
▁conform	-3339
▁Sh	-3340
▁transform	-3341
▁lograr	-3342
▁Estud	-3343
▁sé	-3344
▁estará	-3345
EM	-3346
▁porno	-3347
▁industri	-3348
op	-3349
▁espacios	-3350
▁hid	-3351
▁Mujer	-3352
estion	-3353
▁He	-3354
fía	-3355
▁disponibles	-3356
ajas	-3357
▁habitaciones	-3358
▁buenas	-3359
ístico	-3360
▁competi	-3361
teles	-3362
ética	-3363
▁Gru	-3364
▁fres	-3365
▁hici	-3366
▁Ig	-3367
omo	-3368
▁Da	-3369
rada	-3370
▁cm	-3371
▁fut	-3372
▁trabajadores	-3373
▁municipio	-3374
▁común	-3375
▁emb	-3376
arla	-3377
áticas	-3378
▁recuer	-3379
▁queremos	-3380
todo	-3381
dente	-3382
▁plataforma	-3383
▁tratar	-3384
▁martes	-3385
▁colaboración	-3386
▁niño	-3387
idencia	-3388
In	-3389
▁interpre	-3390
hes	-3391
▁disposición	-3392
▁videos	-3393
mail	-3394
vin	-3395
▁escen	-3396
▁efecto	-3397
▁texto	-3398
▁evalu	-3399
▁artículos	-3400
▁Españ	-3401
▁existe	-3402
▁empez	-3403
▁adquir	-3404
9,	-3405
▁inicio	-3406
▁Bl	-3407
aras	-3408
titud	-3409
▁acciden	-3410
▁ens	-3411
▁fl	-3412
▁inmedia	-3413
pero	-3414
▁ru	-3415
▁modific	-3416
-0	-3417
▁Segu	-3418
orios	-3419
▁period	-3420
▁Much	-3421
udades	-3422
▁@	-3423
▁corr	-3424
siones	-3425
▁matr	-3426
ertad	-3427
▁allí	-3428
itiva	-3429
▁Dise	-3430
Est	-3431
▁científ	-3432
▁enf	-3433
▁ropa	-3434
▁Buenos	-3435
▁tipos	-3436
portes	-3437
▁consumo	-3438
▁sil	-3439
▁norte	-3440
▁marcas	-3441
▁técnicas	-3442
▁certific	-3443
▁Facebook	-3444
lesia	-3445
gada	-3446
bil	-3447
▁rápido	-3448
▁llamado	-3449
▁obten	-3450
ativas	-3451
▁ninguna	-3452
▁compr	-3453
onia	-3454
ormente	-3455
80	-3456
idor	-3457
▁variedad	-3458
▁pagar	-3459
▁perd	-3460
ológica	-3461
▁Dec	-3462
tiago	-3463
▁origen	-3464
▁experim	-3465
▁Estos	-3466
▁deja	-3467
▁Administ	-3468
▁glo	-3469
▁frecu	-3470
▁Jav	-3471
arra	-3472
▁torn	-3473
▁Empres	-3474
▁garanti	-3475
▁pelig	-3476
▁ganar	-3477
▁aceite	-3478
▁ojos	-3479
,5	-3480
▁técnico	-3481
esta	-3482
▁Ayuntamiento	-3483
TR	-3484
fica	-3485
▁estás	-3486
▁posición	-3487
▁rad	-3488
▁conocido	-3489
culos	-3490
▁pelo	-3491
▁preten	-3492
lev	-3493
▁alterna	-3494
ive	-3495
▁aprob	-3496
imonio	-3497
arnos	-3498
▁principio	-3499
▁centros	-3500
▁ent	-3501
▁coleg	-3502
▁visitar	-3503
▁Br	-3504
9.	-3505
▁ámb	-3506
▁naturaleza	-3507
▁adul	-3508
▁piezas	-3509
▁industria	-3510
▁motivo	-3511
▁movimiento	-3512
leza	-3513
▁diferente	-3514
▁alimentos	-3515
cti	-3516
▁marcha	-3517
▁program	-3518
▁referencia	-3519
▁Form	-3520
▁competen	-3521
▁personajes	-3522
▁asi	-3523
▁confirm	-3524
uesto	-3525
▁Trans	-3526
au	-3527
▁Amb	-3528
▁hon	-3529
▁Hum	-3530
▁acceder	-3531
▁Antonio	-3532
▁Bel	-3533
▁cuidado	-3534
▁Rob	-3535
40	-3536
3.	-3537
drá	-3538
mite	-3539
ultad	-3540
▁pag	-3541
▁Dan	-3542
▁Má	-3543
ablo	-3544
▁extre	-3545
▁intelig	-3546
▁serv	-3547
ublic	-3548
-2	-3549
▁velocidad	-3550
▁fem	-3551
▁campe	-3552
▁utiliza	-3553
▁Miguel	-3554
▁satisf	-3555
▁multi	-3556
▁CON	-3557
▁Europe	-3558
▁equip	-3559
ól	-3560
keting	-3561
▁pública	-3562
▁exterior	-3563
▁ofreci	-3564
▁Aquí	-3565
▁sufr	-3566
ticamente	-3567
itales	-3568
▁diario	-3569
▁Francisco	-3570
▁cuad	-3571
▁prove	-3572
▁beneficios	-3573
11	-3574
▁interesante	-3575
cen	-3576
▁3.	-3577
▁decisión	-3578
▁niveles	-3579
▁tri	-3580
5,	-3581
▁Secretar	-3582
▁guard	-3583
▁Club	-3584
▁asesor	-3585
villa	-3586
▁europe	-3587
▁empren	-3588
▁ciudades	-3589
▁diferencia	-3590
▁República	-3591
▁histor	-3592
▁foro	-3593
▁mit	-3594
▁época	-3595
ído	-3596
▁ejecu	-3597
▁ú	-3598
enov	-3599
▁escuela	-3600
▁Cer	-3601
▁partidos	-3602
icionales	-3603
▁ros	-3604
▁llama	-3605
▁config	-3606
teriormente	-3607
entado	-3608
ans	-3609
▁jard	-3610
▁conex	-3611
▁seleccion	-3612
tron	-3613
▁playa	-3614
uebles	-3615
IL	-3616
▁At	-3617
▁específ	-3618
▁maqu	-3619
▁EL	-3620
▁É	-3621
▁tradicional	-3622
itaria	-3623
▁propuesta	-3624
▁bara	-3625
▁prensa	-3626
▁avent	-3627
▁vuelta	-3628
▁suel	-3629
rados	-3630
▁técnica	-3631
cina	-3632
▁clave	-3633
eos	-3634
ández	-3635
▁tiempos	-3636
▁Jesús	-3637
▁UN	-3638
uniden	-3639
erte	-3640
▁mesa	-3641
▁motor	-3642
▁tej	-3643
▁grab	-3644
▁bot	-3645
▁líder	-3646
orge	-3647
▁Bus	-3648
▁dolor	-3649
▁Grupo	-3650
inc	-3651
▁Aut	-3652
ame	-3653
énero	-3654
▁gusto	-3655
▁Santiago	-3656
▁humanos	-3657
▁firm	-3658
anzas	-3659
▁vacaciones	-3660
▁Deb	-3661
íp	-3662
▁arm	-3663
tud	-3664
teca	-3665
unda	-3666
▁Ben	-3667
▁preocup	-3668
▁dura	-3669
▁ahor	-3670
▁prueb	-3671
▁llegó	-3672
▁razón	-3673
▁Vic	-3674
▁materia	-3675
▁Just	-3676
▁Encu	-3677
puestos	-3678
UN	-3679
▁encanta	-3680
▁tir	-3681
▁diversos	-3682
▁realiza	-3683
dico	-3684
▁habitu	-3685
▁Consejo	-3686
tarse	-3687
▁páginas	-3688
▁Rodr	-3689
▁decid	-3690
▁provoc	-3691
▁ofertas	-3692
▁especiales	-3693
rantes	-3694
▁pone	-3695
▁Aires	-3696
tillas	-3697
▁separ	-3698
tem	-3699
▁Sur	-3700
tad	-3701
▁ocasiones	-3702
▁80	-3703
ices	-3704
▁Venez	-3705
▁29	-3706
▁Progra	-3707
▁Valencia	-3708
▁alcan	-3709
▁vehículos	-3710
▁noticias	-3711
ulares	-3712
5.	-3713
leo	-3714
▁negocios	-3715
▁efectos	-3716
jero	-3717
dito	-3718
▁pien	-3719
▁Cur	-3720
▁fron	-3721
▁mantenimiento	-3722
▁eres	-3723
▁preci	-3724
▁elev	-3725
ore	-3726
▁vie	-3727
rique	-3728
▁Desarrollo	-3729
▁animales	-3730
▁Crist	-3731
▁personales	-3732
▁responsable	-3733
▁almacen	-3734
▁dispositivos	-3735
dem	-3736
pia	-3737
imen	-3738
▁allá	-3739
▁encima	-3740
▁instalación	-3741
izada	-3742
idamente	-3743
▁vícti	-3744
anía	-3745
▁alquil	-3746
▁Seguridad	-3747
ampoco	-3748
acio	-3749
ks	-3750
▁lic	-3751
▁gama	-3752
▁acerc	-3753
▁Ej	-3754
yas	-3755
▁herramienta	-3756
▁compon	-3757
▁mostrar	-3758
▁pesos	-3759
▁convier	-3760
▁calor	-3761
▁García	-3762
▁escr	-3763
uno	-3764
▁estim	-3765
▁segura	-3766
▁causa	-3767
▁Inf	-3768
use	-3769
▁Econ	-3770
▁herm	-3771
8.	-3772
▁naturales	-3773
▁Sistem	-3774
IM	-3775
ival	-3776
▁brind	-3777
lad	-3778
onz	-3779
iblio	-3780
▁voz	-3781
▁áreas	-3782
▁vía	-3783
▁eran	-3784
olesc	-3785
tará	-3786
▁pocos	-3787
▁relaciones	-3788
inta	-3789
▁dé	-3790
uelas	-3791
▁simplemente	-3792
▁supuesto	-3793
▁proced	-3794
▁Cub	-3795
▁volun	-3796
▁existen	-3797
3,	-3798
entales	-3799
▁voc	-3800
teras	-3801
▁repro	-3802
▁objetivos	-3803
▁propiedad	-3804
▁imple	-3805
▁enlace	-3806
▁pensar	-3807
ki	-3808
▁consecu	-3809
▁acog	-3810
▁100%	-3811
▁rob	-3812
▁Patr	-3813
▁películas	-3814
▁PD	-3815
▁contenidos	-3816
pal	-3817
▁iniciativa	-3818
▁bienes	-3819
ema	-3820
IT	-3821
▁Comer	-3822
enda	-3823
oper	-3824
imismo	-3825
▁arquitec	-3826
▁carác	-3827
▁adelante	-3828
▁carácter	-3829
▁humano	-3830
▁reunión	-3831
▁ejercicio	-3832
▁Espe	-3833
▁Ofici	-3834
▁actualmente	-3835
ull	-3836
▁tiendas	-3837
▁oro	-3838
isl	-3839
▁Manuel	-3840
▁log	-3841
▁verde	-3842
▁Th	-3843
▁acto	-3844
iere	-3845
▁destino	-3846
▁31	-3847
▁ren	-3848
▁trabajando	-3849
▁vehículo	-3850
▁sesión	-3851
▁chicas	-3852
▁amigo	-3853
▁ep	-3854
▁internacionales	-3855
▁ventas	-3856
▁amar	-3857
▁española	-3858
▁Rey	-3859
▁artes	-3860
▁escol	-3861
▁entrar	-3862
▁altura	-3863
lez	-3864
▁regal	-3865
▁cont	-3866
▁kiló	-3867
▁bomb	-3868
pectos	-3869
▁tú	-3870
▁mues	-3871
▁enfermedad	-3872
▁fuente	-3873
▁demasiado	-3874
▁km	-3875
▁fútbol	-3876
▁compren	-3877
tarios	-3878
▁liber	-3879
indo	-3880
??	-3881
ime	-3882
▁Dav	-3883
▁desapar	-3884
▁inversión	-3885
▁XX	-3886
▁televisión	-3887
taciones	-3888
▁esca	-3889
▁Doc	-3890
▁formul	-3891
▁iz	-3892
4.	-3893
▁actualidad	-3894
▁empezar	-3895
▁Fundación	-3896
▁estadouniden	-3897
▁pie	-3898
adém	-3899
erop	-3900
▁Hist	-3901
▁laboral	-3902
▁concl	-3903
ético	-3904
pens	-3905
iego	-3906
▁directo	-3907
▁llamada	-3908
ció	-3909
edores	-3910
▁diversas	-3911
itud	-3912
▁Estas	-3913
▁central	-3914
▁Ra	-3915
▁perm	-3916
▁valores	-3917
jeros	-3918
echas	-3919
ins	-3920
▁pruebas	-3921
▁pacientes	-3922
▁pais	-3923
8,	-3924
▁Pers	-3925
▁alcal	-3926
ense	-3927
roso	-3928
▁Prem	-3929
zon	-3930
▁posib	-3931
▁Comisión	-3932
▁org	-3933
▁Leer	-3934
▁Actu	-3935
guay	-3936
pol	-3937
▁leyendo	-3938
▁esco	-3939
col	-3940
▁clases	-3941
▁concent	-3942
▁localidad	-3943
iedo	-3944
ant	-3945
▁confianza	-3946
▁rendimiento	-3947
▁constante	-3948
ky	-3949
▁pronto	-3950
▁funciones	-3951
oz	-3952
▁presentar	-3953
int	-3954
quer	-3955
▁prac	-3956
▁Domin	-3957
▁obst	-3958
▁reconoc	-3959
▁maes	-3960
Por	-3961
▁Blan	-3962
▁miles	-3963
▁ofrecemos	-3964
▁aloj	-3965
▁Profes	-3966
▁ín	-3967
▁Be	-3968
venida	-3969
▁Puede	-3970
ienen	-3971
▁carre	-3972
king	-3973
rasil	-3974
▁estuvo	-3975
▁arrib	-3976
▁plantas	-3977
▁toma	-3978
itán	-3979
zado	-3980
▁cumplir	-3981
encial	-3982
▁Gonz	-3983
▁llu	-3984
▁máxima	-3985
▁Web	-3986
▁micro	-3987
▁software	-3988
▁lucha	-3989
4,	-3990
▁últimas	-3991
untos	-3992
▁mejora	-3993
▁fortal	-3994
▁1,	-3995
▁Venezuela	-3996
▁Tecn	-3997
▁maravil	-3998
▁belleza	-3999
▁Elec	-4000
▁indepen	-4001
sas	-4002
▁conocimientos	-4003
icial	-4004
▁restaur	-4005
▁Na	-4006
roid	-4007
▁numeros	-4008
acia	-4009
▁sencillo	-4010
ópez	-4011
▁buenos	-4012
onato	-4013
▁Hace	-4014
▁Pon	-4015
▁representa	-4016
▁temp	-4017
▁198	-4018
▁prec	-4019
▁presupuesto	-4020
▁sala	-4021
deral	-4022
▁empleo	-4023
▁complic	-4024
7,	-4025
ij	-4026
afas	-4027
▁sitios	-4028
log	-4029
▁Congreso	-4030
▁ganas	-4031
AP	-4032
▁izquier	-4033
▁ár	-4034
▁estructura	-4035
▁90	-4036
7.	-4037
▁cré	-4038
ker	-4039
▁aband	-4040
▁Án	-4041
▁funcionamiento	-4042
▁Servicio	-4043
▁pic	-4044
▁nutr	-4045
▁excep	-4046
▁escribir	-4047
▁crisis	-4048
ificado	-4049
▁impacto	-4050
ramos	-4051
▁jef	-4052
iqu	-4053
▁publicado	-4054
▁firma	-4055
RE	-4056
▁Tu	-4057
▁Pl	-4058
▁López	-4059
▁calles	-4060
▁enfrent	-4061
ierto	-4062
▁suelo	-4063
ismos	-4064
▁tamb	-4065
▁Pedro	-4066
▁realizó	-4067
▁On	-4068
▁darle	-4069
▁aspectos	-4070
▁deporte	-4071
▁lech	-4072
▁pregunta	-4073
ósito	-4074
▁suje	-4075
▁puertas	-4076
ónde	-4077
ches	-4078
grafía	-4079
▁libertad	-4080
▁Luego	-4081
▁generación	-4082
▁refle	-4083
▁China	-4084
▁iP	-4085
onda	-4086
triz	-4087
▁Fue	-4088
▁sel	-4089
▁lit	-4090
▁prefer	-4091
iales	-4092
▁2011	-4093
▁afirm	-4094
gal	-4095
▁Bal	-4096
▁aumento	-4097
▁piedra	-4098
▁formato	-4099
tuvo	-4100
▁Mal	-4101
iosa	-4102
▁código	-4103
▁mitad	-4104
AT	-4105
▁Nuestra	-4106
▁vecinos	-4107
▁Ing	-4108
Los	-4109
▁(3	-4110
▁hechos	-4111
ificar	-4112
icación	-4113
▁violencia	-4114
▁sede	-4115
guez	-4116
▁extran	-4117
undo	-4118
ticia	-4119
▁económica	-4120
▁cámara	-4121
icios	-4122
▁capaz	-4123
12	-4124
tig	-4125
▁jugador	-4126
US	-4127
▁económico	-4128
▁acon	-4129
▁sección	-4130
cito	-4131
▁cursos	-4132
▁carga	-4133
▁respec	-4134
▁dispositivo	-4135
ianos	-4136
▁sexual	-4137
▁plá	-4138
dizaje	-4139
▁exposición	-4140
▁amena	-4141
▁edificio	-4142
▁publicación	-4143
▁Nuestro	-4144
▁cuarto	-4145
peratura	-4146
▁esfuerzo	-4147
▁abog	-4148
▁ofrecen	-4149
▁Cruz	-4150
▁sentir	-4151
jor	-4152
▁participantes	-4153
/0	-4154
tillo	-4155
wn	-4156
▁luch	-4157
usa	-4158
▁suf	-4159
▁puerta	-4160
▁corpor	-4161
▁consulta	-4162
▁Ni	-4163
▁palabra	-4164
▁suerte	-4165
▁revis	-4166
▁TV	-4167
▁etapa	-4168
▁Fer	-4169
▁crea	-4170
▁equ	-4171
▁Señ	-4172
▁urb	-4173
▁Policía	-4174
ablemente	-4175
▁larga	-4176
▁Pues	-4177
▁vivienda	-4178
▁Dirección	-4179
▁entender	-4180
▁Mac	-4181
▁vivo	-4182
▁completamente	-4183
land	-4184
▁70	-4185
raciones	-4186
▁déc	-4187
▁Pablo	-4188
▁fuego	-4189
día	-4190
▁guerra	-4191
asa	-4192
▁otor	-4193
▁magn	-4194
áfica	-4195
Cu	-4196
▁agre	-4197
▁nota	-4198
▁pareci	-4199
▁Puedes	-4200
6.	-4201
ites	-4202
▁mam	-4203
och	-4204
▁Imp	-4205
▁domici	-4206
▁informe	-4207
▁infl	-4208
puestas	-4209
▁Fel	-4210
▁premio	-4211
▁Ram	-4212
▁conm	-4213
▁normal	-4214
▁informó	-4215
▁fer	-4216
▁profund	-4217
▁sosten	-4218
▁distancia	-4219
▁canciones	-4220
ung	-4221
gust	-4222
▁idi	-4223
ude	-4224
▁Hotel	-4225
▁rápida	-4226
▁responsabilidad	-4227
UE	-4228
▁detec	-4229
▁intent	-4230
6,	-4231
▁memoria	-4232
▁luc	-4233
▁cita	-4234
inaria	-4235
chas	-4236
▁Ur	-4237
▁radio	-4238
▁Ta	-4239
vers	-4240
▁enorm	-4241
bilidad	-4242
ang	-4243
▁unidades	-4244
▁fra	-4245
▁Tal	-4246
▁corte	-4247
▁vino	-4248
▁Sub	-4249
▁Organ	-4250
trol	-4251
eca	-4252
▁políticas	-4253
▁Mientras	-4254
▁tarjeta	-4255
▁Sem	-4256
ique	-4257
▁olvid	-4258
▁casas	-4259
oo	-4260
▁ambient	-4261
▁Noticias	-4262
aliza	-4263
▁chica	-4264
▁Ja	-4265
áis	-4266
▁York	-4267
medio	-4268
▁Perú	-4269
▁reflex	-4270
▁familiares	-4271
▁quién	-4272
▁pér	-4273
▁Oc	-4274
▁sabor	-4275
▁limpieza	-4276
▁desem	-4277
vel	-4278
▁herman	-4279
▁instituciones	-4280
Al	-4281
▁renov	-4282
▁Fu	-4283
▁levan	-4284
▁ámbito	-4285
▁haga	-4286
▁tercera	-4287
▁kilómetros	-4288
▁Escuela	-4289
▁gratuita	-4290
▁dudas	-4291
▁increí	-4292
▁médico	-4293
▁pedido	-4294
hat	-4295
▁cif	-4296
▁propias	-4297
▁arro	-4298
▁ado	-4299
▁Servicios	-4300
▁Nat	-4301
imas	-4302
▁Copa	-4303
ísimo	-4304
▁reducir	-4305
▁artistas	-4306
▁mod	-4307
fa	-4308
▁permiten	-4309
▁Nic	-4310
arle	-4311
▁quieren	-4312
▁cultural	-4313
▁visión	-4314
▁convers	-4315
▁administración	-4316
▁economía	-4317
▁traduc	-4318
▁ran	-4319
alizado	-4320
▁preguntas	-4321
▁llegada	-4322
quilib	-4323
▁expertos	-4324
▁mu	-4325
OC	-4326
▁Brasil	-4327
uelos	-4328
:30	-4329
enso	-4330
iores	-4331
▁aport	-4332
▁Dr	-4333
▁Comp	-4334
ples	-4335
ulado	-4336
▁finales	-4337
▁temperatura	-4338
▁Puerto	-4339
▁Rom	-4340
inal	-4341
▁experiencias	-4342
▁Francia	-4343
▁superficie	-4344
mentos	-4345
▁etique	-4346
▁siete	-4347
-201	-4348
▁distribu	-4349
▁impuls	-4350
▁diez	-4351
▁pasos	-4352
▁género	-4353
teros	-4354
toral	-4355
▁SE	-4356
▁flu	-4357
cés	-4358
ster	-4359
▁dando	-4360
▁bloque	-4361
▁líneas	-4362
▁dul	-4363
deración	-4364
▁dific	-4365
▁Algun	-4366
▁unidad	-4367
▁adolesc	-4368
▁Produc	-4369
▁primeras	-4370
▁manifes	-4371
▁abrir	-4372
▁Mil	-4373
▁secretar	-4374
▁crec	-4375
iados	-4376
▁múlti	-4377
poner	-4378
▁caja	-4379
▁gras	-4380
▁aper	-4381
▁Sam	-4382
▁estren	-4383
▁Of	-4384
▁bre	-4385
▁anal	-4386
eropuerto	-4387
▁estableci	-4388
estruc	-4389
rán	-4390
25	-4391
▁profesor	-4392
▁avis	-4393
▁cuyo	-4394
▁quiz	-4395
▁ciudadanos	-4396
▁tercer	-4397
▁%	-4398
vas	-4399
▁Mag	-4400
val	-4401
pes	-4402
▁habrá	-4403
▁habitación	-4404
cado	-4405
▁revista	-4406
▁gobern	-4407
ash	-4408
▁Catal	-4409
▁comenzó	-4410
tador	-4411
▁tampoco	-4412
▁pena	-4413
▁relacionados	-4414
indows	-4415
▁barrio	-4416
ure	-4417
▁colomb	-4418
▁decoración	-4419
▁Norte	-4420
▁integ	-4421
ondo	-4422
olid	-4423
▁Art	-4424
▁victoria	-4425
▁ocurr	-4426
ivas	-4427
▁rojo	-4428
▁parque	-4429
anda	-4430
▁sabemos	-4431
chez	-4432
▁Vir	-4433
▁espero	-4434
elas	-4435
▁principios	-4436
▁hará	-4437
▁EE	-4438
we	-4439
▁documento	-4440
SO	-4441
iendas	-4442
▁rue	-4443
▁atrás	-4444
▁recorrido	-4445
cipl	-4446
▁Ángel	-4447
▁artista	-4448
▁Diseño	-4449
▁denomin	-4450
▁instrum	-4451
▁entidad	-4452
▁académ	-4453
IO	-4454
VA	-4455
▁Twitter	-4456
▁fras	-4457
▁disp	-4458
ko	-4459
▁—	-4460
▁197	-4461
▁abierto	-4462
eles	-4463
medades	-4464
▁cierre	-4465
▁propios	-4466
▁Asimismo	-4467
▁invers	-4468
▁oficina	-4469
▁ruta	-4470
▁periodo	-4471
ris	-4472
▁requiere	-4473
▁http	-4474
▁maravillos	-4475
▁aun	-4476
▁Hu	-4477
qué	-4478
▁probar	-4479
▁paz	-4480
▁estrategia	-4481
▁mencion	-4482
▁ubicado	-4483
viv	-4484
▁4.	-4485
uma	-4486
▁ocup	-4487
▁comba	-4488
▁resulta	-4489
▁conexión	-4490
▁35	-4491
▁Merc	-4492
▁debes	-4493
raz	-4494
▁detalle	-4495
▁Ber	-4496
▁Incl	-4497
ET	-4498
▁musical	-4499
mentar	-4500
▁posibilidades	-4501
CION	-4502
▁contrario	-4503
▁rode	-4504
▁ital	-4505
▁asegu	-4506
▁femen	-4507
▁Jorge	-4508
▁organizaciones	-4509
▁manual	-4510
edia	-4511
metro	-4512
▁sonido	-4513
▁cog	-4514
cionales	-4515
▁triun	-4516
▁adultos	-4517
ump	-4518
amor	-4519
arial	-4520
▁móviles	-4521
▁restaurante	-4522
▁sueño	-4523
▁éste	-4524
▁agrad	-4525
▁list	-4526
isiones	-4527
▁convir	-4528
▁llegado	-4529
▁personaje	-4530
reras	-4531
▁deten	-4532
▁Bien	-4533
▁Rus	-4534
▁comod	-4535
▁prostitu	-4536
▁debemos	-4537
▁aparece	-4538
▁Investig	-4539
ty	-4540
formas	-4541
▁toque	-4542
▁infer	-4543
▁pref	-4544
tienen	-4545
▁pedir	-4546
▁€	-4547
▁especta	-4548
cede	-4549
▁precis	-4550
pira	-4551
▁habían	-4552
▁señaló	-4553
▁propuestas	-4554
▁Provin	-4555
▁revel	-4556
▁Cultura	-4557
ini	-4558
▁II	-4559
▁aspecto	-4560
▁plaza	-4561
▁mezcla	-4562
▁do	-4563
▁diseños	-4564
oras	-4565
▁canción	-4566
▁habla	-4567
▁perfecta	-4568
▁defensa	-4569
▁descubrir	-4570
org	-4571
▁abajo	-4572
▁Ciencias	-4573
▁pequeñas	-4574
hn	-4575
acho	-4576
▁perfil	-4577
mart	-4578
mer	-4579
▁Somos	-4580
ítulos	-4581
▁opinión	-4582
jado	-4583
▁remo	-4584
don	-4585
▁Az	-4586
▁psic	-4587
▁cru	-4588
▁comerci	-4589
▁comerciales	-4590
zones	-4591
▁Vol	-4592
▁proporcion	-4593
▁Jun	-4594
▁rit	-4595
▁térm	-4596
dedores	-4597
▁creado	-4598
▁trituradora	-4599
▁audio	-4600
▁telef	-4601
▁David	-4602
▁presión	-4603
▁Android	-4604
▁empa	-4605
▁impos	-4606
ológicos	-4607
▁escal	-4608
ierta	-4609
▁arriba	-4610
▁Uno	-4611
ilos	-4612
ender	-4613
▁relig	-4614
dencias	-4615
▁concepto	-4616
deres	-4617
arca	-4618
▁registro	-4619
▁vues	-4620
mm	-4621
▁PDF	-4622
▁teniendo	-4623
bum	-4624
itan	-4625
▁aprendizaje	-4626
IP	-4627
▁zapatos	-4628
▁cama	-4629
▁prom	-4630
▁ilum	-4631
▁iba	-4632
▁án	-4633
▁interc	-4634
▁León	-4635
▁comput	-4636
UU	-4637
▁www	-4638
▁diá	-4639
▁prácticas	-4640
dentes	-4641
▁bebé	-4642
▁figura	-4643
▁próxima	-4644
15	-4645
ight	-4646
▁infantil	-4647
▁canal	-4648
ler	-4649
▁Tele	-4650
▁incluyendo	-4651
▁volv	-4652
▁sacar	-4653
▁departamento	-4654
▁incon	-4655
▁cualquiera	-4656
▁argent	-4657
ducido	-4658
▁Def	-4659
Se	-4660
talia	-4661
▁adop	-4662
MA	-4663
▁generar	-4664
▁bici	-4665
▁presiden	-4666
▁hija	-4667
▁Fis	-4668
▁suficiente	-4669
▁apun	-4670
▁envío	-4671
▁Pin	-4672
imens	-4673
▁amplio	-4674
▁públicos	-4675
▁escrito	-4676
▁Municipal	-4677
200	-4678
pati	-4679
▁derro	-4680
▁militar	-4681
▁lectura	-4682
▁jud	-4683
▁ejec	-4684
▁sorpres	-4685
▁viajes	-4686
▁nar	-4687
▁Muy	-4688
▁estad	-4689
▁ge	-4690
▁(1)	-4691
▁veg	-4692
▁dep	-4693
▁Tiene	-4694
▁acus	-4695
UL	-4696
▁archivos	-4697
▁fundamental	-4698
▁alcanzar	-4699
IF	-4700
▁ocho	-4701
▁ech	-4702
▁escenario	-4703
▁leche	-4704
▁soporte	-4705
OD	-4706
▁receta	-4707
mania	-4708
▁500	-4709
curso	-4710
▁Vide	-4711
▁espos	-4712
▁clar	-4713
OP	-4714
▁compos	-4715
▁Sil	-4716
taria	-4717
▁mensajes	-4718
▁combin	-4719
íguez	-4720
▁dismin	-4721
▁estaban	-4722
▁compañeros	-4723
▁relev	-4724
▁tranqu	-4725
▁Información	-4726
▁lav	-4727
▁territorio	-4728
▁isla	-4729
▁descuento	-4730
▁somb	-4731
▁acum	-4732
▁fotografía	-4733
▁esperar	-4734
▁Juegos	-4735
www	-4736
▁Proyec	-4737
▁mente	-4738
cr	-4739
▁convoca	-4740
▁feliz	-4741
▁Mol	-4742
▁Apple	-4743
▁Villa	-4744
▁desaf	-4745
▁colorear	-4746
▁funciona	-4747
▁tengan	-4748
▁mínimo	-4749
▁cuan	-4750
crib	-4751
▁acero	-4752
▁ec	-4753
▁dicha	-4754
▁Sistema	-4755
▁imper	-4756
▁accesorios	-4757
gencias	-4758
▁necesitas	-4759
▁Sevilla	-4760
▁For	-4761
▁documentos	-4762
icina	-4763
tern	-4764
▁municipal	-4765
ída	-4766
▁Ast	-4767
▁comenzar	-4768
ámica	-4769
ella	-4770
▁publicidad	-4771
▁contiene	-4772
▁aten	-4773
▁apenas	-4774
iación	-4775
▁Presidente	-4776
▁bra	-4777
▁alquiler	-4778
▁cadena	-4779
▁posibles	-4780
▁Zapa	-4781
▁jam	-4782
▁due	-4783
▁titular	-4784
▁Selec	-4785
▁putas	-4786
▁lengu	-4787
▁pasada	-4788
▁resolución	-4789
▁Unión	-4790
▁trayec	-4791
▁fines	-4792
__	-4793
▁consultar	-4794
▁aseguró	-4795
▁ras	-4796
gn	-4797
▁Rodríguez	-4798
ogra	-4799
gram	-4800
▁rod	-4801
▁requis	-4802
▁vuelve	-4803
▁traslad	-4804
4)	-4805
ánchez	-4806
su	-4807
adura	-4808
▁promoción	-4809
▁enfermedades	-4810
torias	-4811
▁demanda	-4812
▁mantiene	-4813
enes	-4814
▁Neg	-4815
ambio	-4816
▁Hol	-4817
▁cuentas	-4818
idez	-4819
▁rom	-4820
▁regalo	-4821
▁dibujos	-4822
▁dónde	-4823
▁Está	-4824
▁optim	-4825
43	-4826
acas	-4827
cir	-4828
▁menores	-4829
▁tecnologías	-4830
▁Tar	-4831
ieran	-4832
▁sencilla	-4833
▁premios	-4834
vedades	-4835
▁elegante	-4836
▁tambien	-4837
▁objeto	-4838
▁fuentes	-4839
▁sín	-4840
▁anteriores	-4841
▁tre	-4842
edes	-4843
▁paque	-4844
▁suave	-4845
▁Trabajo	-4846
▁talleres	-4847
▁Liga	-4848
▁Técn	-4849
tamientos	-4850
▁noticia	-4851
▁competencia	-4852
estre	-4853
▁garantizar	-4854
ondicion	-4855
▁Fernando	-4856
▁Indust	-4857
▁Leg	-4858
▁innovación	-4859
▁ilust	-4860
▁Sánchez	-4861
▁concurso	-4862
▁retir	-4863
▁acud	-4864
ube	-4865
▁miedo	-4866
▁justo	-4867
hone	-4868
▁err	-4869
▁nacionales	-4870
cent	-4871
▁sangre	-4872
▁explicó	-4873
▁All	-4874
▁Vis	-4875
▁flor	-4876
▁Costa	-4877
▁caf	-4878
▁agreg	-4879
▁piscina	-4880
▁situaciones	-4881
▁NO	-4882
▁grado	-4883
▁Ev	-4884
▁flex	-4885
▁múltiples	-4886
énd	-4887
▁policía	-4888
▁catal	-4889
▁convertido	-4890
▁ton	-4891
LE	-4892
▁Windows	-4893
▁comienza	-4894
▁Const	-4895
▁resolver	-4896
▁conflic	-4897
▁alimentación	-4898
▁Aud	-4899
▁Dos	-4900
▁contrato	-4901
▁piso	-4902
▁Solo	-4903
▁Dip	-4904
▁servid	-4905
▁utilizando	-4906
▁cabello	-4907
▁costo	-4908
▁háb	-4909
▁Civil	-4910
▁Ti	-4911
▁salv	-4912
ilares	-4913
▁falle	-4914
itarios	-4915
▁comentario	-4916
▁escuchar	-4917
▁pudo	-4918
▁golpe	-4919
▁contrib	-4920
▁sectores	-4921
▁equilib	-4922
▁estadounidense	-4923
▁bro	-4924
▁afici	-4925
▁mismas	-4926
▁bu	-4927
▁Bas	-4928
let	-4929
xto	-4930
oche	-4931
▁Dist	-4932
▁tendencia	-4933
▁carta	-4934
orts	-4935
ód	-4936
▁entrevista	-4937
CA	-4938
▁terra	-4939
▁celebración	-4940
▁Programa	-4941
BA	-4942
▁har	-4943
izados	-4944
ys	-4945
▁negoci	-4946
▁impar	-4947
▁Mer	-4948
▁quedó	-4949
▁gustaría	-4950
▁contras	-4951
▁aumentar	-4952
▁principalmente	-4953
▁editor	-4954
▁cuya	-4955
▁llevó	-4956
▁formulario	-4957
▁deberá	-4958
▁boca	-4959
▁espectá	-4960
▁pid	-4961
▁embara	-4962
▁domicilio	-4963
90	-4964
▁distribución	-4965
▁Alf	-4966
▁diput	-4967
capaci	-4968
▁ór	-4969
▁Ama	-4970
▁concre	-4971
▁Encuent	-4972
redientes	-4973
riente	-4974
▁próximos	-4975
▁enviar	-4976
▁archivo	-4977
▁accidente	-4978
▁dormitor	-4979
oría	-4980
▁dejó	-4981
▁Plaza	-4982
áncer	-4983
▁sho	-4984
▁Comunidad	-4985
▁flores	-4986
▁derecha	-4987
▁comunidades	-4988
▁cuentan	-4989
▁entra	-4990
itores	-4991
▁pintura	-4992
▁Sab	-4993
▁alguno	-4994
▁hospital	-4995
ucía	-4996
▁conoce	-4997
▁tren	-4998
▁física	-4999
▁Gonzá	-5000
▁vend	-5001
▁aproximadamente	-5002
arm	-5003
▁duración	-5004
▁historias	-5005
▁Do	-5006
▁duro	-5007
amo	-5008
▁Ste	-5009
▁desea	-5010
▁estan	-5011
iero	-5012
▁Parque	-5013
ike	-5014
uencias	-5015
▁recep	-5016
▁volumen	-5017
▁oportunidades	-5018
▁visitas	-5019
▁sola	-5020
▁Javier	-5021
▁vistas	-5022
bres	-5023
▁potencia	-5024
doba	-5025
rita	-5026
▁Im	-5027
▁comercio	-5028
▁Fuer	-5029
▁acondicion	-5030
▁testi	-5031
ité	-5032
▁torneo	-5033
▁300	-5034
▁ministro	-5035
gadas	-5036
▁elección	-5037
▁choc	-5038
▁fase	-5039
’,	-5040
tantes	-5041
▁civil	-5042
▁Festival	-5043
▁Public	-5044
▁solicitar	-5045
minos	-5046
▁puedas	-5047
▁desempe	-5048
▁dejo	-5049
▁guía	-5050
▁juntos	-5051
deras	-5052
▁sale	-5053
▁González	-5054
▁privado	-5055
acidad	-5056
▁Trib	-5057
▁fiestas	-5058
▁relo	-5059
▁lanzamiento	-5060
tum	-5061
san	-5062
▁requer	-5063
▁Navidad	-5064
▁encontramos	-5065
ille	-5066
▁aliment	-5067
▁novela	-5068
▁vincul	-5069
tró	-5070
▁elecciones	-5071
▁estén	-5072
▁recibido	-5073
uyen	-5074
raestruc	-5075
▁comunicado	-5076
ianas	-5077
▁Mur	-5078
geniería	-5079
▁abandon	-5080
▁mm	-5081
70	-5082
▁alegr	-5083
íc	-5084
▁rum	-5085
▁intentar	-5086
▁operación	-5087
▁caliente	-5088
lano	-5089
▁jefe	-5090
▁Men	-5091
▁salón	-5092
▁PC	-5093
▁Pé	-5094
▁resistencia	-5095
▁asistencia	-5096
▁útil	-5097
itada	-5098
uos	-5099
▁máquina	-5100
irma	-5101
CO	-5102
gamos	-5103
▁proteger	-5104
ses	-5105
▁operaciones	-5106
▁corto	-5107
eda	-5108
▁Todas	-5109
▁anunció	-5110
▁hacemos	-5111
▁presentado	-5112
▁meta	-5113
▁Cuba	-5114
enar	-5115
aa	-5116
/1	-5117
▁hicieron	-5118
berto	-5119
▁integra	-5120
▁consejos	-5121
▁finalmente	-5122
unal	-5123
▁futbol	-5124
▁2,	-5125
▁Museo	-5126
▁creci	-5127
pin	-5128
piración	-5129
▁eliminar	-5130
▁pilo	-5131
▁2018.	-5132
▁gastron	-5133
▁fas	-5134
▁político	-5135
ficiencia	-5136
▁Soy	-5137
▁empleados	-5138
▁porta	-5139
▁rol	-5140
ánica	-5141
▁fiscal	-5142
▁institución	-5143
uña	-5144
▁invierno	-5145
▁global	-5146
▁aquellas	-5147
▁vestido	-5148
oluc	-5149
▁Ger	-5150
▁camis	-5151
▁enten	-5152
▁vive	-5153
▁repe	-5154
lbum	-5155
▁Muchas	-5156
yos	-5157
icción	-5158
LA	-5159
endas	-5160
▁permanente	-5161
▁Hasta	-5162
dón	-5163
▁boda	-5164
▁consigu	-5165
▁Administración	-5166
▁incluyen	-5167
amento	-5168
▁delan	-5169
▁francés	-5170
▁ordenador	-5171
▁explica	-5172
jan	-5173
olas	-5174
▁inspir	-5175
▁Tom	-5176
có	-5177
▁divert	-5178
▁ubicación	-5179
jal	-5180
▁Dig	-5181
habil	-5182
▁podía	-5183
▁planes	-5184
▁ocul	-5185
▁podrían	-5186
▁AC	-5187
EP	-5188
▁bio	-5189
▁tub	-5190
▁presentó	-5191
▁Pen	-5192
▁2018,	-5193
▁intens	-5194
▁reconocimiento	-5195
▁dispone	-5196
▁Cla	-5197
▁Nuevo	-5198
▁venez	-5199
ey	-5200
rá	-5201
▁cantante	-5202
▁Departamento	-5203
▁Flor	-5204
▁clín	-5205
95	-5206
úcar	-5207
▁fotografías	-5208
▁ciclo	-5209
▁lujo	-5210
ísticos	-5211
▁Gre	-5212
▁placer	-5213
▁situado	-5214
deros	-5215
▁integral	-5216
tista	-5217
▁podido	-5218
art	-5219
timos	-5220
▁cuadr	-5221
▁reciente	-5222
▁circul	-5223
▁supone	-5224
américa	-5225
ICA	-5226
▁ambas	-5227
▁moto	-5228
iver	-5229
▁Eso	-5230
▁subir	-5231
▁asum	-5232
▁Coleg	-5233
▁dispar	-5234
▁Pérez	-5235
▁terror	-5236
quinas	-5237
▁típ	-5238
▁trabaja	-5239
▁gastos	-5240
45	-5241
tente	-5242
▁izquierda	-5243
▁ido	-5244
ish	-5245
▁tareas	-5246
▁gestion	-5247
▁Inst	-5248
▁crít	-5249
▁recor	-5250
▁mecan	-5251
▁exac	-5252
▁habitantes	-5253
▁AL	-5254
▁lejos	-5255
stica	-5256
▁Justicia	-5257
▁diver	-5258
▁45	-5259
▁solamente	-5260
▁comport	-5261
diendo	-5262
▁encontrado	-5263
▁sensación	-5264
avera	-5265
▁siguen	-5266
reo	-5267
▁Trabaj	-5268
íritu	-5269
▁Fil	-5270
▁funcional	-5271
▁similar	-5272
venir	-5273
Cómo	-5274
▁habilidades	-5275
▁adelan	-5276
▁aument	-5277
▁novedades	-5278
▁Don	-5279
▁tes	-5280
uestos	-5281
▁ritmo	-5282
▁regular	-5283
▁técnicos	-5284
▁deseo	-5285
ise	-5286
▁tendrán	-5287
▁Sex	-5288
▁turismo	-5289
,...	-5290
como	-5291
▁objetos	-5292
▁chicos	-5293
▁arran	-5294
▁recha	-5295
▁Rusia	-5296
▁reclam	-5297
arme	-5298
▁pieza	-5299
▁pies	-5300
▁niñas	-5301
▁Estamos	-5302
ick	-5303
▁carne	-5304
ese	-5305
▁motiv	-5306
▁vest	-5307
▁ingredientes	-5308
▁añadir	-5309
▁conocida	-5310
▁tarif	-5311
▁tera	-5312
▁ast	-5313
ley	-5314
▁Ge	-5315
▁suele	-5316
▁hier	-5317
IV	-5318
▁Lin	-5319
entas	-5320
▁miembro	-5321
▁marketing	-5322
▁Gol	-5323
▁fich	-5324
▁Agu	-5325
▁Ana	-5326
▁respeto	-5327
▁entregar	-5328
▁circ	-5329
▁entradas	-5330
pp	-5331
▁Facultad	-5332
▁decisiones	-5333
icales	-5334
▁sirve	-5335
▁dicen	-5336
▁transpar	-5337
tigo	-5338
▁coin	-5339
):	-5340
torios	-5341
▁crédito	-5342
▁cuán	-5343
▁cuch	-5344
▁permitirá	-5345
▁Central	-5346
▁restaurantes	-5347
▁construir	-5348
▁mig	-5349
▁Tea	-5350
▁formar	-5351
▁clásico	-5352
ibe	-5353
▁Protección	-5354
misión	-5355
▁Iglesia	-5356
▁Julio	-5357
▁tales	-5358
▁agradable	-5359
▁administra	-5360
▁cuestión	-5361
▁vos	-5362
▁apertura	-5363
▁método	-5364
▁justicia	-5365
▁mand	-5366
▁rell	-5367
tid	-5368
lamento	-5369
▁Plata	-5370
▁horario	-5371
▁utilizado	-5372
▁vit	-5373
▁Alemania	-5374
▁prior	-5375
▁adecuado	-5376
▁mur	-5377
▁impresion	-5378
▁Mundo	-5379
▁Foto	-5380
▁Sobre	-5381
ígen	-5382
▁Cat	-5383
▁entidades	-5384
▁presentes	-5385
▁compras	-5386
▁Lond	-5387
▁error	-5388
▁continuar	-5389
▁Trump	-5390
▁públicas	-5391
▁lum	-5392
▁genial	-5393
▁human	-5394
▁debería	-5395
▁números	-5396
▁miner	-5397
▁venezol	-5398
▁Mes	-5399
▁fondos	-5400
▁histórico	-5401
▁facilitar	-5402
▁quin	-5403
eratura	-5404
▁café	-5405
▁organismo	-5406
▁carretera	-5407
▁políticos	-5408
▁guar	-5409
Un	-5410
▁acaba	-5411
▁residen	-5412
osos	-5413
▁llevan	-5414
▁You	-5415
▁recibió	-5416
▁Loc	-5417
▁Junta	-5418
▁álbum	-5419
ju	-5420
▁indicó	-5421
▁Hospital	-5422
▁Radio	-5423
▁agentes	-5424
▁estrellas	-5425
▁recibe	-5426
▁identidad	-5427
▁Europea	-5428
▁abierta	-5429
sted	-5430
▁detrás	-5431
▁practic	-5432
▁ina	-5433
ters	-5434
bit	-5435
▁2009	-5436
▁Porque	-5437
▁Bur	-5438
▁muebles	-5439
▁fácilmente	-5440
▁alcance	-5441
inario	-5442
▁desper	-5443
▁constitu	-5444
▁look	-5445
De	-5446
▁hoteles	-5447
▁garantía	-5448
▁Pu	-5449
▁fom	-5450
IR	-5451
▁Fr	-5452
▁lleno	-5453
23	-5454
rucciones	-5455
talla	-5456
uncia	-5457
tég	-5458
▁mul	-5459
▁reserva	-5460
▁Secretaría	-5461
▁clima	-5462
▁fechas	-5463
lando	-5464
▁Pel	-5465
▁Cór	-5466
▁celebra	-5467
▁cál	-5468
▁Raf	-5469
iamente	-5470
▁manda	-5471
viamente	-5472
▁sustitu	-5473
iversario	-5474
▁tarea	-5475
▁correspondiente	-5476
▁XV	-5477
▁Har	-5478
▁lluvia	-5479
▁apartam	-5480
▁Ru	-5481
▁AM	-5482
▁afr	-5483
ige	-5484
▁estación	-5485
▁Inicio	-5486
ienta	-5487
▁fabricación	-5488
▁denunci	-5489
▁terminar	-5490
▁buscan	-5491
▁bur	-5492
ñar	-5493
▁Latina	-5494
▁aplicar	-5495
▁intención	-5496
▁Latino	-5497
▁reparación	-5498
▁produce	-5499
mina	-5500
ieres	-5501
▁viajar	-5502
▁pasando	-5503
ife	-5504
▁solid	-5505
▁cuidad	-5506
▁ciencia	-5507
▁ges	-5508
▁fa	-5509
▁fib	-5510
▁constit	-5511
iblioteca	-5512
▁th	-5513
▁resul	-5514
laga	-5515
▁contactos	-5516
cesa	-5517
ológicas	-5518
pr	-5519
▁necesitan	-5520
▁río	-5521
▁cubr	-5522
amentos	-5523
▁misión	-5524
▁Martínez	-5525
▁honor	-5526
▁secund	-5527
▁asegura	-5528
▁explor	-5529
ámaras	-5530
▁habitual	-5531
▁bos	-5532
▁Medio	-5533
▁flo	-5534
▁botón	-5535
todos	-5536
▁reto	-5537
ileg	-5538
▁propiedades	-5539
▁ésta	-5540
▁ingresos	-5541
▁descan	-5542
▁vídeos	-5543
▁Mad	-5544
▁pretende	-5545
iller	-5546
▁ustedes	-5547
▁perío	-5548
IG	-5549
▁torno	-5550
zan	-5551
▁increíble	-5552
alla	-5553
▁Banco	-5554
▁New	-5555
ni	-5556
▁escena	-5557
cidos	-5558
▁Hern	-5559
rano	-5560
anc	-5561
▁garantiz	-5562
tismo	-5563
▁reac	-5564
▁Roc	-5565
▁dro	-5566
▁factores	-5567
▁términos	-5568
íz	-5569
ami	-5570
▁anual	-5571
▁beneficio	-5572
ld	-5573
▁diseñado	-5574
▁realización	-5575
sen	-5576
PS	-5577
▁huev	-5578
▁quedan	-5579
Si	-5580
Des	-5581
▁necesarios	-5582
▁portá	-5583
▁Tenemos	-5584
▁Contin	-5585
▁recordar	-5586
▁Política	-5587
▁azúcar	-5588
▁planeta	-5589
▁democ	-5590
▁Ins	-5591
▁víctimas	-5592
▁Pi	-5593
▁Lic	-5594
▁debajo	-5595
gados	-5596
cind	-5597
▁Cámara	-5598
▁Equi	-5599
▁emerg	-5600
▁fen	-5601
▁Mat	-5602
▁seguros	-5603
▁camp	-5604
▁segundos	-5605
▁36	-5606
▁frío	-5607
ivamente	-5608
▁potencial	-5609
▁suminist	-5610
lada	-5611
erías	-5612
▁desarrollado	-5613
inados	-5614
',	-5615
▁pérdida	-5616
▁industrial	-5617
▁Federación	-5618
ciles	-5619
▁Gestión	-5620
▁jardín	-5621
▁cruz	-5622
-3	-5623
▁puestos	-5624
▁cáncer	-5625
▁pase	-5626
▁Div	-5627
▁Zara	-5628
gü	-5629
▁oscu	-5630
▁Premio	-5631
▁indica	-5632
▁terreno	-5633
xid	-5634
▁Les	-5635
▁desay	-5636
▁convierte	-5637
▁mala	-5638
▁Bueno	-5639
aque	-5640
▁visitantes	-5641
▁enorme	-5642
ted	-5643
▁ataque	-5644
mal	-5645
▁celular	-5646
▁contamos	-5647
▁paciente	-5648
▁Derecho	-5649
▁suma	-5650
quiera	-5651
Com	-5652
▁realizará	-5653
ota	-5654
▁convoc	-5655
▁Fernández	-5656
▁dor	-5657
▁Italia	-5658
rupción	-5659
▁puesta	-5660
isp	-5661
▁conta	-5662
▁legal	-5663
▁perió	-5664
▁servir	-5665
▁carb	-5666
▁(201	-5667
▁concierto	-5668
▁organizado	-5669
▁agres	-5670
▁originales	-5671
▁rey	-5672
ajo	-5673
▁comodidad	-5674
▁inferior	-5675
▁proporciona	-5676
▁Lle	-5677
trado	-5678
▁prote	-5679
▁combinación	-5680
▁antiguo	-5681
▁representantes	-5682
▁Historia	-5683
▁masa	-5684
▁gl	-5685
▁Rel	-5686
▁explo	-5687
▁gar	-5688
PA	-5689
▁gira	-5690
▁requisitos	-5691
Te	-5692
abe	-5693
▁fantas	-5694
asti	-5695
dremos	-5696
▁Ecu	-5697
▁ON	-5698
▁Siempre	-5699
andro	-5700
▁John	-5701
▁parecer	-5702
!!!!	-5703
▁delante	-5704
▁interac	-5705
▁Actualmente	-5706
▁cereb	-5707
óstico	-5708
▁Turismo	-5709
▁inver	-5710
▁tono	-5711
▁arreg	-5712
▁Tierra	-5713
▁manejo	-5714
jud	-5715
▁catá	-5716
▁Descar	-5717
▁alcalde	-5718
▁Camp	-5719
▁aguas	-5720
ics	-5721
▁comunes	-5722
▁5.	-5723
▁niña	-5724
urar	-5725
▁consiste	-5726
▁teatro	-5727
igas	-5728
▁encontrarás	-5729
▁rápidamente	-5730
▁establecer	-5731
▁necesaria	-5732
tilidad	-5733
▁vender	-5734
▁AN	-5735
▁directa	-5736
▁dirigido	-5737
▁Pueb	-5738
▁llena	-5739
▁Sociedad	-5740
Re	-5741
▁Ib	-5742
▁rub	-5743
SS	-5744
▁minuto	-5745
IB	-5746
▁mel	-5747
▁Rev	-5748
▁Usted	-5749
▁DEL	-5750
▁normas	-5751
alda	-5752
▁Andr	-5753
▁asign	-5754
▁describ	-5755
▁Campe	-5756
▁veo	-5757
▁Sen	-5758
▁actuales	-5759
EF	-5760
df	-5761
▁evolución	-5762
mes	-5763
▁propósito	-5764
icultura	-5765
▁pasó	-5766
its	-5767
▁Comercio	-5768
▁Gab	-5769
▁protagonista	-5770
▁Bro	-5771
▁batería	-5772
6)	-5773
ney	-5774
▁adquirir	-5775
▁entrenamiento	-5776
allo	-5777
▁peor	-5778
5)	-5779
▁Salv	-5780
wer	-5781
▁oficinas	-5782
▁físico	-5783
▁pueblos	-5784
AB	-5785
▁recuerda	-5786
duce	-5787
▁Federal	-5788
▁dejado	-5789
▁Quer	-5790
▁)	-5791
▁Sala	-5792
▁gri	-5793
▁preparar	-5794
▁sabes	-5795
▁Córdoba	-5796
▁Mov	-5797
▁autob	-5798
▁perfectamente	-5799
▁sof	-5800
aman	-5801
▁infraestruc	-5802
▁categorías	-5803
íb	-5804
▁infec	-5805
mentación	-5806
▁Jul	-5807
▁deriv	-5808
▁Antes	-5809
▁independiente	-5810
▁Reino	-5811
▁tráfico	-5812
▁Nuestros	-5813
▁interesantes	-5814
▁aus	-5815
rador	-5816
▁mercados	-5817
▁realizada	-5818
atos	-5819
ARA	-5820
▁destaca	-5821
▁quím	-5822
▁inciden	-5823
goza	-5824
coh	-5825
▁platos	-5826
Me	-5827
olucion	-5828
tistas	-5829
▁medic	-5830
▁jurí	-5831
lin	-5832
enaje	-5833
▁médicos	-5834
ane	-5835
▁individual	-5836
quez	-5837
▁cuel	-5838
eña	-5839
▁Alb	-5840
▁controlar	-5841
▁adicional	-5842
▁relacionadas	-5843
esper	-5844
▁portal	-5845
americana	-5846
▁especialistas	-5847
pecta	-5848
▁proce	-5849
ísima	-5850
▁gratuito	-5851
▁cable	-5852
▁intereses	-5853
▁asociación	-5854
▁Air	-5855
8)	-5856
▁realizan	-5857
itando	-5858
▁anuncios	-5859
▁nomb	-5860
ray	-5861
▁AD	-5862
ónico	-5863
▁actuación	-5864
▁Viv	-5865
▁amist	-5866
ilación	-5867
▁terceros	-5868
vos	-5869
▁Mir	-5870
▁dieta	-5871
▁perspec	-5872
▁recién	-5873
▁Dispon	-5874
▁moderno	-5875
adal	-5876
▁Rafa	-5877
zada	-5878
▁brin	-5879
▁españoles	-5880
▁aventura	-5881
▁fuerzas	-5882
▁afirmó	-5883
.”	-5884
ificados	-5885
▁cuero	-5886
▁solicitud	-5887
▁autén	-5888
uir	-5889
▁producir	-5890
▁Mos	-5891
mitir	-5892
...)	-5893
ardia	-5894
▁circun	-5895
▁iPhone	-5896
▁preparación	-5897
▁agencia	-5898
net	-5899
elos	-5900
%.	-5901
7)	-5902
▁resca	-5903
▁populares	-5904
▁sh	-5905
▁perro	-5906
▁implic	-5907
▁Famil	-5908
▁posee	-5909
▁Arte	-5910
▁vemos	-5911
▁32	-5912
▁Dic	-5913
▁asc	-5914
▁responder	-5915
▁contactar	-5916
▁pleno	-5917
onso	-5918
▁cooper	-5919
▁Río	-5920
ferencias	-5921
EG	-5922
▁cop	-5923
isod	-5924
▁Mis	-5925
▁nie	-5926
▁cielo	-5927
inarias	-5928
▁compañías	-5929
▁Gas	-5930
▁Color	-5931
.00	-5932
▁continúa	-5933
▁circu	-5934
▁metal	-5935
▁resal	-5936
▁resid	-5937
▁Partido	-5938
▁aeropuerto	-5939
abora	-5940
▁Clas	-5941
▁incluido	-5942
▁Alej	-5943
sal	-5944
▁Il	-5945
tización	-5946
▁escribió	-5947
ith	-5948
▁hayan	-5949
▁joy	-5950
ég	-5951
▁involuc	-5952
▁(19	-5953
▁imposible	-5954
▁HD	-5955
▁obstante	-5956
▁hos	-5957
adu	-5958
▁espir	-5959
icado	-5960
▁prostitutas	-5961
▁ger	-5962
▁intervención	-5963
▁nombres	-5964
▁Auto	-5965
▁coord	-5966
gó	-5967
tom	-5968
▁je	-5969
▁Agr	-5970
quilla	-5971
▁2017,	-5972
ífico	-5973
▁hubo	-5974
▁cocin	-5975
utación	-5976
▁debate	-5977
porán	-5978
ames	-5979
▁cerv	-5980
▁Málaga	-5981
▁dimens	-5982
▁tap	-5983
ueve	-5984
▁na	-5985
▁196	-5986
▁Jap	-5987
▁Valle	-5988
▁0,	-5989
▁Cult	-5990
▁guitar	-5991
▁prestig	-5992
▁dedicado	-5993
▁obliga	-5994
▁usando	-5995
uyó	-5996
▁seres	-5997
cre	-5998
▁Española	-5999
▁cumplimiento	-6000
▁britán	-6001
cor	-6002
To	-6003
isos	-6004
▁hermano	-6005
▁ment	-6006
▁Ejecu	-6007
▁Teatro	-6008
▁quería	-6009
13	-6010
estiones	-6011
▁table	-6012
edas	-6013
▁Vi	-6014
▁bienestar	-6015
▁americ	-6016
▁recuerdo	-6017
▁bonito	-6018
▁fuertes	-6019
teo	-6020
▁Excel	-6021
▁conce	-6022
▁estarán	-6023
▁exam	-6024
24	-6025
▁vidas	-6026
cib	-6027
▁Artes	-6028
▁estrategias	-6029
▁nave	-6030
▁abre	-6031
tima	-6032
▁AR	-6033
500	-6034
An	-6035
▁gana	-6036
americano	-6037
▁Londres	-6038
ux	-6039
▁Especial	-6040
▁verdadera	-6041
itura	-6042
▁arg	-6043
▁apreci	-6044
▁150	-6045
▁ubicada	-6046
▁later	-6047
▁destacar	-6048
▁saben	-6049
▁responsables	-6050
▁entreten	-6051
▁ventajas	-6052
▁Mejor	-6053
▁Encuentra	-6054
ienes	-6055
IEN	-6056
tición	-6057
▁vuelo	-6058
▁Paz	-6059
▁decidido	-6060
▁reconocer	-6061
▁Andal	-6062
arlas	-6063
▁logró	-6064
▁Señor	-6065
▁breve	-6066
▁atender	-6067
▁coches	-6068
▁llevado	-6069
▁Aust	-6070
inio	-6071
▁Er	-6072
capacidad	-6073
arlos	-6074
▁actor	-6075
».	-6076
hats	-6077
ting	-6078
▁oficiales	-6079
▁armas	-6080
▁secretario	-6081
▁profesores	-6082
▁concreto	-6083
▁razones	-6084
rón	-6085
imnas	-6086
▁puso	-6087
▁especie	-6088
emor	-6089
▁pec	-6090
▁utilizan	-6091
▁convertirse	-6092
▁humana	-6093
▁vienen	-6094
▁acos	-6095
▁Español	-6096
▁Daniel	-6097
▁Director	-6098
▁descanso	-6099
▁espectacular	-6100
▁desconoci	-6101
▁alojamiento	-6102
letas	-6103
▁orgul	-6104
TU	-6105
▁tec	-6106
▁PP	-6107
iada	-6108
▁actualización	-6109
▁recuperación	-6110
▁enamor	-6111
▁AP	-6112
▁plato	-6113
▁adecuada	-6114
eración	-6115
▁cómodo	-6116
▁dieron	-6117
rosoft	-6118
▁pocas	-6119
▁recientemente	-6120
isla	-6121
▁artic	-6122
18	-6123
▁tradición	-6124
olina	-6125
▁suger	-6126
▁hermanos	-6127
▁actriz	-6128
uf	-6129
▁contribu	-6130
▁movil	-6131
▁suelen	-6132
▁Pública	-6133
▁tradicionales	-6134
▁empieza	-6135
55	-6136
▁escolar	-6137
▁Inte	-6138
iforn	-6139
▁Colegio	-6140
▁Diego	-6141
amblea	-6142
▁pasión	-6143
▁costa	-6144
▁horm	-6145
adá	-6146
▁arena	-6147
▁CD	-6148
órm	-6149
▁Esper	-6150
▁Cómo	-6151
▁acu	-6152
▁Descu	-6153
▁privada	-6154
▁movimientos	-6155
hop	-6156
▁Aca	-6157
TM	-6158
▁presentan	-6159
▁AS	-6160
▁peg	-6161
▁actos	-6162
ivia	-6163
▁destacó	-6164
▁invitados	-6165
▁contexto	-6166
▁alcoh	-6167
▁Av	-6168
▁tarjetas	-6169
▁dará	-6170
▁dedicada	-6171
▁surg	-6172
▁Estoy	-6173
orld	-6174
▁ulti	-6175
▁discipl	-6176
▁posicion	-6177
▁autores	-6178
▁respal	-6179
▁anuncio	-6180
▁animal	-6181
▁operativo	-6182
ham	-6183
▁compati	-6184
bas	-6185
▁liter	-6186
▁consci	-6187
▁tuv	-6188
▁jugue	-6189
▁quedado	-6190
▁reforma	-6191
dom	-6192
mobil	-6193
▁promover	-6194
ertura	-6195
▁abord	-6196
▁bru	-6197
▁alma	-6198
▁bols	-6199
tod	-6200
erva	-6201
▁escuelas	-6202
izadas	-6203
rimir	-6204
▁frecuencia	-6205
isten	-6206
▁pobre	-6207
▁seguimiento	-6208
iosos	-6209
ood	-6210
▁lenguaje	-6211
▁3,	-6212
▁Rub	-6213
▁desn	-6214
▁alm	-6215
▁Play	-6216
▁enter	-6217
▁componentes	-6218
▁ventaja	-6219
▁usa	-6220
UC	-6221
▁barr	-6222
lín	-6223
▁rap	-6224
▁estancia	-6225
▁período	-6226
▁Andalucía	-6227
Las	-6228
▁seguidores	-6229
▁bicicle	-6230
▁evaluación	-6231
▁ama	-6232
▁Sí	-6233
▁lide	-6234
▁enfoc	-6235
▁Black	-6236
▁digo	-6237
▁puerto	-6238
▁tratamientos	-6239
▁gustan	-6240
▁recetas	-6241
▁convocatoria	-6242
yn	-6243
▁riesgos	-6244
ongitud	-6245
rael	-6246
▁tendencias	-6247
▁trayectoria	-6248
▁puntu	-6249
▁huel	-6250
▁desac	-6251
áficos	-6252
▁señor	-6253
▁alegría	-6254
stagram	-6255
▁vul	-6256
▁vaya	-6257
▁legisl	-6258
▁colegio	-6259
▁Luc	-6260
▁celebrar	-6261
erá	-6262
▁líqu	-6263
ueva	-6264
▁Via	-6265
▁Seb	-6266
▁viviendas	-6267
ii	-6268
▁bl	-6269
▁vale	-6270
▁aclar	-6271
uyendo	-6272
▁elemento	-6273
▁recuperar	-6274
esía	-6275
▁Castilla	-6276
ultades	-6277
▁plástico	-6278
tadores	-6279
▁impresión	-6280
▁bases	-6281
▁conden	-6282
▁querido	-6283
▁2008	-6284
▁absol	-6285
tieron	-6286
▁sorte	-6287
ficaz	-6288
▁expresión	-6289
▁similares	-6290
▁Ecuador	-6291
▁Jer	-6292
▁terraza	-6293
tudes	-6294
▁Mu	-6295
▁Gr	-6296
iremos	-6297
▁espectáculo	-6298
Pro	-6299
demia	-6300
hor	-6301
▁lengua	-6302
esión	-6303
ánico	-6304
▁estratég	-6305
ólogo	-6306
▁Fiscal	-6307
▁cercano	-6308
▁caída	-6309
▁Foro	-6310
▁desf	-6311
▁contam	-6312
▁montaña	-6313
▁importa	-6314
▁pose	-6315
▁textos	-6316
▁promedio	-6317
▁aniversario	-6318
▁habría	-6319
▁estrella	-6320
▁establecimiento	-6321
▁estudiar	-6322
aturas	-6323
▁prohib	-6324
▁episod	-6325
▁sól	-6326
TER	-6327
esos	-6328
▁Arch	-6329
▁desplaz	-6330
han	-6331
▁perros	-6332
▁Unido	-6333
▁motivos	-6334
brica	-6335
iante	-6336
▁habil	-6337
▁olv	-6338
▁silen	-6339
▁argentino	-6340
▁Mel	-6341
▁Gafas	-6342
quia	-6343
▁Ric	-6344
▁tejido	-6345
▁ejercicios	-6346
▁viendo	-6347
endario	-6348
▁eficaz	-6349
▁Investigación	-6350
▁abra	-6351
▁reca	-6352
16	-6353
▁condición	-6354
▁vid	-6355
▁socios	-6356
▁descarga	-6357
▁tranquil	-6358
▁homenaje	-6359
▁esperando	-6360
▁Lor	-6361
rante	-6362
▁bolsa	-6363
▁existencia	-6364
▁daños	-6365
▁carreras	-6366
ances	-6367
ómica	-6368
▁podéis	-6369
xil	-6370
▁humor	-6371
▁nacimiento	-6372
iber	-6373
tell	-6374
▁Cir	-6375
▁errores	-6376
▁Orden	-6377
▁exitos	-6378
icana	-6379
osofía	-6380
▁crema	-6381
▁perdido	-6382
tiende	-6383
▁chocola	-6384
toño	-6385
▁publicada	-6386
▁Alex	-6387
▁Esp	-6388
▁relaj	-6389
▁Sólo	-6390
▁ape	-6391
▁decidió	-6392
▁consecuencia	-6393
oce	-6394
alizada	-6395
▁llevará	-6396
▁necesarias	-6397
▁navegación	-6398
UB	-6399
▁empresarial	-6400
▁configuración	-6401
ección	-6402
▁aportar	-6403
▁influ	-6404
▁reales	-6405
▁programación	-6406
▁ago	-6407
▁finalidad	-6408
▁respuestas	-6409
▁hubiera	-6410
terías	-6411
▁Negro	-6412
▁París	-6413
▁complejo	-6414
▁ic	-6415
▁consec	-6416
▁Microsoft	-6417
▁rem	-6418
▁hidra	-6419
dor	-6420
▁desen	-6421
▁Andrés	-6422
▁depend	-6423
▁Fl	-6424
▁elaboración	-6425
▁comienzo	-6426
stru	-6427
▁vib	-6428
▁du	-6429
▁comportamiento	-6430
ñado	-6431
posiciones	-6432
▁analizar	-6433
▁aver	-6434
▁criter	-6435
%,	-6436
?,	-6437
▁daño	-6438
▁autón	-6439
▁antigua	-6440
17	-6441
▁cristal	-6442
▁..	-6443
itaciones	-6444
▁bi	-6445
▁llegan	-6446
▁coste	-6447
▁Ima	-6448
▁chico	-6449
▁Unidad	-6450
▁conseguido	-6451
▁suced	-6452
grado	-6453
▁felici	-6454
isas	-6455
▁Constitu	-6456
▁actores	-6457
▁molino	-6458
▁pensando	-6459
dice	-6460
▁instalar	-6461
▁protec	-6462
▁horno	-6463
ecido	-6464
▁versiones	-6465
▁prevención	-6466
▁indi	-6467
▁virtual	-6468
14	-6469
▁argum	-6470
▁podremos	-6471
▁Mujeres	-6472
frica	-6473
▁aprovechar	-6474
martph	-6475
▁Derechos	-6476
▁conferencia	-6477
▁exter	-6478
▁Alberto	-6479
ventud	-6480
▁Santo	-6481
▁COM	-6482
▁hel	-6483
▁alter	-6484
▁informa	-6485
etido	-6486
▁fre	-6487
▁ja	-6488
▁cancel	-6489
▁municipios	-6490
▁enlaces	-6491
▁deportivo	-6492
▁arquitectura	-6493
inada	-6494
▁Ve	-6495
▁Entr	-6496
▁coordin	-6497
▁posterior	-6498
▁tantos	-6499
▁aler	-6500
▁siento	-6501
▁edificios	-6502
▁dejamos	-6503
▁inaug	-6504
▁Torre	-6505
▁nueve	-6506
III	-6507
▁fantá	-6508
▁polvo	-6509
▁Arm	-6510
▁clara	-6511
ny	-6512
▁War	-6513
emas	-6514
▁Ide	-6515
▁regional	-6516
▁peru	-6517
urg	-6518
▁brill	-6519
▁letras	-6520
▁novia	-6521
▁Toda	-6522
▁superar	-6523
▁cari	-6524
2)	-6525
ómico	-6526
dería	-6527
▁Depor	-6528
▁especializada	-6529
▁Instagram	-6530
▁centr	-6531
▁alternativa	-6532
▁acabado	-6533
▁mirada	-6534
plic	-6535
▁tier	-6536
▁Exper	-6537
AG	-6538
▁banco	-6539
rom	-6540
▁culturales	-6541
▁particulares	-6542
▁apuesta	-6543
▁impac	-6544
inten	-6545
▁Ga	-6546
▁goles	-6547
▁enseñanza	-6548
▁proto	-6549
▁Utiliz	-6550
▁cuadro	-6551
▁espíritu	-6552
▁Tel	-6553
▁defens	-6554
▁pecho	-6555
▁incluir	-6556
▁mult	-6557
▁hojas	-6558
vir	-6559
▁hago	-6560
drán	-6561
▁cree	-6562
▁término	-6563
▁mexicano	-6564
▁pista	-6565
▁plazas	-6566
▁trip	-6567
EO	-6568
tificación	-6569
▁altos	-6570
▁publicó	-6571
orio	-6572
▁basado	-6573
▁expecta	-6574
cón	-6575
isco	-6576
▁inicial	-6577
olv	-6578
Ar	-6579
▁Uru	-6580
▁analiz	-6581
▁dulce	-6582
▁hacía	-6583
▁blanca	-6584
▁Ps	-6585
▁secre	-6586
.)	-6587
▁digitales	-6588
▁amiga	-6589
▁aqui	-6590
▁Ante	-6591
enciales	-6592
▁líderes	-6593
▁sorpresa	-6594
▁ocurre	-6595
▁deberán	-6596
▁enem	-6597
▁Tex	-6598
▁gris	-6599
▁ase	-6600
▁Finalmente	-6601
▁quieras	-6602
▁esposa	-6603
DA	-6604
▁eficiencia	-6605
▁País	-6606
▁iniciar	-6607
▁llamar	-6608
▁iglesia	-6609
▁ejecución	-6610
▁escritor	-6611
▁Superior	-6612
-8	-6613
▁idioma	-6614
▁circunst	-6615
▁Bogo	-6616
▁corta	-6617
▁apos	-6618
▁Agencia	-6619
▁;	-6620
**	-6621
▁diagn	-6622
▁costos	-6623
▁export	-6624
▁llamadas	-6625
▁puls	-6626
▁visual	-6627
ajaj	-6628
▁masco	-6629
1)	-6630
Ch	-6631
▁conoz	-6632
▁Enrique	-6633
égimen	-6634
▁manga	-6635
PR	-6636
cra	-6637
▁vál	-6638
▁cámaras	-6639
iesta	-6640
▁dirigida	-6641
bra	-6642
▁peligro	-6643
▁Atl	-6644
apia	-6645
▁Granada	-6646
▁cumple	-6647
▁conviv	-6648
▁canales	-6649
by	-6650
dicos	-6651
▁Zaragoza	-6652
▁rock	-6653
▁Abr	-6654
▁Ál	-6655
ecía	-6656
▁prést	-6657
▁Digital	-6658
▁Japón	-6659
▁viento	-6660
ertos	-6661
iario	-6662
▁contem	-6663
▁pasaj	-6664
▁Alcal	-6665
▁listo	-6666
▁Descripción	-6667
▁acord	-6668
▁Salvador	-6669
▁definitiva	-6670
▁gig	-6671
▁altas	-6672
▁panor	-6673
▁chil	-6674
▁efectu	-6675
▁protes	-6676
▁candidato	-6677
▁menudo	-6678
▁pat	-6679
▁supon	-6680
▁activos	-6681
▁periodista	-6682
▁PS	-6683
ensión	-6684
▁televis	-6685
éut	-6686
▁independ	-6687
▁Corte	-6688
▁mapa	-6689
▁logo	-6690
deo	-6691
▁Economía	-6692
▁Algunos	-6693
▁Tengo	-6694
▁hacerse	-6695
tida	-6696
genda	-6697
ifornia	-6698
▁procedimiento	-6699
▁Energ	-6700
▁urg	-6701
ington	-6702
▁labora	-6703
▁quedar	-6704
▁aluminio	-6705
▁inscripción	-6706
▁acondicionado	-6707
▁Vie	-6708
eció	-6709
▁especies	-6710
▁consolid	-6711
▁opiniones	-6712
▁33	-6713
▁Cuer	-6714
▁email	-6715
▁aparecen	-6716
▁400	-6717
▁prácticamente	-6718
▁Sebasti	-6719
»,	-6720
izon	-6721
▁tengas	-6722
▁aficion	-6723
▁únicamente	-6724
▁Fre	-6725
▁https	-6726
▁franqu	-6727
has	-6728
▁meter	-6729
▁Guerra	-6730
▁económicos	-6731
▁cuál	-6732
▁eléctrica	-6733
▁nació	-6734
-6	-6735
▁vuelos	-6736
22	-6737
Lo	-6738
▁Vill	-6739
▁dejando	-6740
▁lla	-6741
▁Mc	-6742
▁investigadores	-6743
▁estudiante	-6744
▁cotid	-6745
▁proporcionar	-6746
▁descrip	-6747
▁partida	-6748
▁visu	-6749
uz	-6750
▁ul	-6751
▁ensay	-6752
▁parejas	-6753
▁universidad	-6754
▁elegido	-6755
▁Cuenta	-6756
▁propon	-6757
▁navegador	-6758
75	-6759
▁cuello	-6760
▁talento	-6761
▁autos	-6762
▁forman	-6763
úper	-6764
▁viven	-6765
▁2000	-6766
▁festival	-6767
▁vosotros	-6768
▁Dra	-6769
▁Popular	-6770
cción	-6771
▁quizás	-6772
sticos	-6773
ds	-6774
▁punta	-6775
▁gir	-6776
▁deleg	-6777
▁prome	-6778
▁campos	-6779
▁Estudios	-6780
▁cay	-6781
▁dominio	-6782
▁asegurar	-6783
▁Proyecto	-6784
▁portátil	-6785
QU	-6786
ícula	-6787
▁metro	-6788
78	-6789
▁fren	-6790
ditos	-6791
▁plena	-6792
▁pide	-6793
▁investi	-6794
▁enfo	-6795
▁preparado	-6796
▁cerrar	-6797
▁socio	-6798
▁porcent	-6799
orro	-6800
ímp	-6801
anes	-6802
▁alar	-6803
▁Personal	-6804
dis	-6805
▁correcta	-6806
xx	-6807
ionar	-6808
▁funcionarios	-6809
istencia	-6810
▁representación	-6811
▁década	-6812
ipe	-6813
▁premi	-6814
▁Hor	-6815
▁recop	-6816
unas	-6817
rist	-6818
▁tuvieron	-6819
UM	-6820
▁Vall	-6821
▁exped	-6822
▁verdadero	-6823
▁trib	-6824
▁asistentes	-6825
▁Star	-6826
rés	-6827
▁Ph	-6828
▁conqu	-6829
▁títulos	-6830
▁Bos	-6831
▁sesiones	-6832
▁solar	-6833
▁protagonistas	-6834
19	-6835
▁capaces	-6836
▁Formación	-6837
▁acompañado	-6838
▁cruc	-6839
▁bras	-6840
▁?	-6841
▁cumplea	-6842
▁Categor	-6843
▁estamp	-6844
urias	-6845
▁integración	-6846
tornos	-6847
▁famoso	-6848
▁Ofrec	-6849
▁Cin	-6850
▁exhib	-6851
▁tela	-6852
▁comprender	-6853
▁publici	-6854
▁acel	-6855
▁absor	-6856
▁realizando	-6857
▁imprescind	-6858
cam	-6859
fas	-6860
fecto	-6861
▁sing	-6862
ército	-6863
▁agregó	-6864
▁encab	-6865
▁contes	-6866
ulada	-6867
▁progres	-6868
▁personalidad	-6869
▁videoj	-6870
licos	-6871
▁menú	-6872
▁cicl	-6873
▁triunfo	-6874
▁aparecer	-6875
▁cientos	-6876
▁Sch	-6877
▁peligros	-6878
▁Jim	-6879
illan	-6880
ómez	-6881
▁previa	-6882
▁sueños	-6883
▁vitam	-6884
▁Espero	-6885
▁reducción	-6886
▁nuevamente	-6887
tive	-6888
inte	-6889
ss	-6890
▁tenían	-6891
▁ganador	-6892
▁Clar	-6893
▁salió	-6894
▁abor	-6895
urr	-6896
▁fenóm	-6897
▁Rafael	-6898
▁libres	-6899
▁almacenamiento	-6900
▁series	-6901
▁Uruguay	-6902
▁combust	-6903
▁efectivo	-6904
▁Dem	-6905
▁retro	-6906
▁Carmen	-6907
▁Tribunal	-6908
▁vay	-6909
▁sínt	-6910
▁Otro	-6911
▁desarrolla	-6912
▁literatura	-6913
▁siente	-6914
▁latino	-6915
▁Var	-6916
▁Otra	-6917
▁delici	-6918
LO	-6919
▁hice	-6920
▁refor	-6921
▁proveedores	-6922
▁Empresa	-6923
éro	-6924
▁suces	-6925
▁clim	-6926
▁Ara	-6927
▁cél	-6928
▁rent	-6929
▁cobertura	-6930
tramos	-6931
▁activa	-6932
▁Inde	-6933
▁cubrir	-6934
▁Contac	-6935
▁Metro	-6936
iam	-6937
▁chocolate	-6938
▁ans	-6939
▁implan	-6940
▁Anti	-6941
▁contó	-6942
uca	-6943
▁Ir	-6944
▁Hemos	-6945
amá	-6946
▁tabla	-6947
itat	-6948
▁hal	-6949
ning	-6950
▁pintar	-6951
aciÃ	-6952
cm	-6953
▁ganó	-6954
▁licencia	-6955
▁declaraciones	-6956
▁consigue	-6957
▁activo	-6958
▁Lima	-6959
▁integrantes	-6960
▁queso	-6961
▁fabricantes	-6962
▁plano	-6963
guen	-6964
berg	-6965
▁aquella	-6966
▁Mús	-6967
▁computadora	-6968
▁matrimonio	-6969
▁mascul	-6970
▁fabricante	-6971
dientes	-6972
quito	-6973
▁grasa	-6974
▁Serg	-6975
▁tendrás	-6976
▁divertido	-6977
▁guste	-6978
▁esperamos	-6979
▁extraordin	-6980
▁usado	-6981
▁alf	-6982
▁logrado	-6983
▁esperanza	-6984
▁48	-6985
▁saludable	-6986
▁entrenador	-6987
dal	-6988
▁genera	-6989
▁Je	-6990
IDAD	-6991
leta	-6992
▁incremento	-6993
▁rural	-6994
▁disf	-6995
▁Organización	-6996
▁Comité	-6997
▁Cultural	-6998
▁utilización	-6999
▁sat	-7000
▁contemporán	-7001
wa	-7002
▁Primera	-7003
entarios	-7004
▁Otros	-7005
▁comedor	-7006
▁mág	-7007
."	-7008
▁apas	-7009
▁Comunicación	-7010
áles	-7011
▁acor	-7012
▁Alejandro	-7013
▁campeón	-7014
▁diálogo	-7015
▁correcto	-7016
▁muestran	-7017
fit	-7018
▁cuento	-7019
empo	-7020
▁adolescentes	-7021
quen	-7022
▁efic	-7023
CIA	-7024
▁trato	-7025
desa	-7026
▁tutor	-7027
▁Du	-7028
▁luminos	-7029
▁mód	-7030
▁rico	-7031
▁hermosa	-7032
▁métodos	-7033
▁crecer	-7034
▁Hernández	-7035
▁Alm	-7036
▁pene	-7037
▁Mario	-7038
▁Igu	-7039
▁Net	-7040
éndose	-7041
terial	-7042
▁copia	-7043
▁docentes	-7044
▁depende	-7045
▁interna	-7046
▁pared	-7047
▁continua	-7048
hi	-7049
▁compañero	-7050
▁recomendamos	-7051
▁Portu	-7052
▁teléfonos	-7053
▁quiera	-7054
▁expresó	-7055
▁metod	-7056
▁nerv	-7057
icaciones	-7058
▁comprobar	-7059
▁Bogotá	-7060
▁clasificación	-7061
▁Jorn	-7062
▁espiritu	-7063
▁Venta	-7064
▁atre	-7065
▁juicio	-7066
▁posteriormente	-7067
úan	-7068
▁propone	-7069
▁Norm	-7070
ína	-7071
▁Hombre	-7072
▁exclusiva	-7073
▁rival	-7074
▁playas	-7075
▁Gómez	-7076
▁Domingo	-7077
▁deportes	-7078
▁longitud	-7079
▁Publicado	-7080
▁Tener	-7081
riel	-7082
▁ce	-7083
▁ópti	-7084
culares	-7085
voz	-7086
▁asistir	-7087
▁Él	-7088
▁preocu	-7089
▁line	-7090
ografía	-7091
amas	-7092
▁colocar	-7093
▁homb	-7094
venil	-7095
▁rato	-7096
rate	-7097
▁trabajan	-7098
enz	-7099
▁cerr	-7100
▁viaj	-7101
▁far	-7102
▁Sigue	-7103
lon	-7104
▁eficiente	-7105
▁Cel	-7106
▁California	-7107
▁cumpleaños	-7108
);	-7109
▁doctor	-7110
▁Oro	-7111
▁Apren	-7112
▁mover	-7113
▁montaje	-7114
boles	-7115
▁ponemos	-7116
▁máquinas	-7117
lia	-7118
▁Neces	-7119
antiles	-7120
iciales	-7121
▁2016,	-7122
▁Industri	-7123
▁Will	-7124
▁Etique	-7125
▁noches	-7126
▁estados	-7127
gráfica	-7128
▁vigil	-7129
▁Alic	-7130
▁mira	-7131
▁emociones	-7132
▁aconte	-7133
▁ingreso	-7134
▁prendas	-7135
ragón	-7136
▁logra	-7137
▁6.	-7138
xi	-7139
▁satisfacción	-7140
ionado	-7141
▁reuniones	-7142
▁basada	-7143
abel	-7144
osas	-7145
▁paquete	-7146
▁Deportes	-7147
▁(2)	-7148
▁indis	-7149
▁causas	-7150
timo	-7151
▁produci	-7152
▁rutas	-7153
▁rosa	-7154
▁iluminación	-7155
▁ingles	-7156
▁temper	-7157
▁empi	-7158
ñez	-7159
inales	-7160
▁conciencia	-7161
▁auton	-7162
▁electrónica	-7163
▁recomendable	-7164
▁esencial	-7165
▁electro	-7166
ll	-7167
▁pagina	-7168
▁estética	-7169
EA	-7170
▁ambiental	-7171
▁plataformas	-7172
urs	-7173
▁compuesto	-7174
▁Af	-7175
▁catálogo	-7176
▁rehabil	-7177
▁conductor	-7178
▁interesados	-7179
▁certificado	-7180
▁esfuerzos	-7181
▁consecuencias	-7182
▁trim	-7183
▁factura	-7184
▁trae	-7185
▁privacidad	-7186
▁estadio	-7187
▁escala	-7188
▁infraestructura	-7189
▁deseas	-7190
▁calendario	-7191
▁moles	-7192
▁colectivo	-7193
▁....	-7194
tidades	-7195
▁Sociales	-7196
▁repos	-7197
▁cuesta	-7198
icepres	-7199
ICO	-7200
▁anunciado	-7201
▁ajuste	-7202
▁cerem	-7203
▁completar	-7204
▁tasa	-7205
▁creatividad	-7206
urado	-7207
▁2017.	-7208
▁Díaz	-7209
▁Caribe	-7210
▁formado	-7211
▁constr	-7212
▁fans	-7213
▁acuer	-7214
▁descuentos	-7215
UD	-7216
▁plas	-7217
▁caer	-7218
▁contigo	-7219
▁primavera	-7220
dote	-7221
▁negra	-7222
▁rostro	-7223
▁Rosa	-7224
ume	-7225
▁Autón	-7226
just	-7227
cepción	-7228
▁Comple	-7229
▁introducir	-7230
▁aé	-7231
▁Sant	-7232
▁Humanos	-7233
▁Edu	-7234
▁atr	-7235
▁pese	-7236
later	-7237
utas	-7238
idel	-7239
▁aconse	-7240
ak	-7241
▁ganado	-7242
▁siquiera	-7243
▁recomienda	-7244
▁Mayo	-7245
▁regul	-7246
▁décadas	-7247
▁alcohol	-7248
▁competición	-7249
▁identificar	-7250
dado	-7251
lear	-7252
▁Op	-7253
▁hablando	-7254
▁Natural	-7255
▁Bra	-7256
▁Blog	-7257
▁coinci	-7258
úr	-7259
▁secreto	-7260
▁damos	-7261
▁determinar	-7262
▁abogados	-7263
▁baños	-7264
▁intercambio	-7265
35	-7266
IX	-7267
ement	-7268
edades	-7269
onía	-7270
▁bajar	-7271
▁34	-7272
▁desayuno	-7273
▁Rio	-7274
▁Acces	-7275
▁afil	-7276
▁inteligencia	-7277
▁Dar	-7278
▁Autor	-7279
▁dormir	-7280
ogr	-7281
uto	-7282
▁Monte	-7283
▁Nosotros	-7284
▁sonr	-7285
▁aporta	-7286
▁actitud	-7287
▁Entonces	-7288
▁publicar	-7289
mala	-7290
▁Control	-7291
▁refug	-7292
▁oposición	-7293
▁cerrado	-7294
▁reconocido	-7295
ril	-7296
▁especific	-7297
▁aer	-7298
▁cach	-7299
acin	-7300
▁rut	-7301
▁Alim	-7302
tidos	-7303
▁dientes	-7304
éticos	-7305
▁tranquilidad	-7306
ambre	-7307
▁Fútbol	-7308
▁moderna	-7309
órmula	-7310
terapia	-7311
▁Ejecutivo	-7312
▁verd	-7313
▁automo	-7314
▁servidor	-7315
▁4,	-7316
▁afecta	-7317
jera	-7318
▁quede	-7319
▁traducción	-7320
▁dibujo	-7321
▁apoyar	-7322
▁italiano	-7323
▁electrónicos	-7324
▁Bon	-7325
▁sient	-7326
MS	-7327
▁Conf	-7328
▁encuentros	-7329
▁recomiendo	-7330
▁batalla	-7331
▁vulner	-7332
▁Disfru	-7333
box	-7334
▁lider	-7335
▁plantilla	-7336
▁Hi	-7337
iner	-7338
▁info	-7339
▁establece	-7340
ínea	-7341
▁previsto	-7342
▁divid	-7343
▁Cristo	-7344
▁voluntad	-7345
▁correr	-7346
▁Feria	-7347
umb	-7348
▁acabar	-7349
▁tantas	-7350
▁gustado	-7351
▁Jef	-7352
▁Fal	-7353
▁cifra	-7354
▁emocion	-7355
▁conectar	-7356
▁grave	-7357
▁educativo	-7358
▁aceptar	-7359
▁come	-7360
----	-7361
▁ayudan	-7362
▁inteligente	-7363
100	-7364
▁dra	-7365
tesis	-7366
▁numerosos	-7367
▁relacionado	-7368
▁38	-7369
▁sup	-7370
▁hecha	-7371
▁Creo	-7372
tional	-7373
▁intelec	-7374
iosas	-7375
cada	-7376
▁notas	-7377
▁paseo	-7378
sung	-7379
▁hin	-7380
irmar	-7381
▁magia	-7382
▁monitor	-7383
▁Guar	-7384
▁entrev	-7385
tecas	-7386
▁hipo	-7387
▁precisamente	-7388
▁especializado	-7389
▁víctima	-7390
▁adicionales	-7391
ADO	-7392
▁circuito	-7393
▁Tan	-7394
▁universo	-7395
▁tuy	-7396
ueble	-7397
▁vital	-7398
▁empezó	-7399
▁registr	-7400
▁Sim	-7401
▁tocar	-7402
mites	-7403
▁baratos	-7404
ezca	-7405
48	-7406
▁produ	-7407
▁apartamento	-7408
▁cambia	-7409
▁colum	-7410
istar	-7411
▁pasan	-7412
▁desped	-7413
▁Aplic	-7414
▁Riv	-7415
ende	-7416
iform	-7417
▁conmigo	-7418
tógraf	-7419
▁ventana	-7420
▁Sp	-7421
ides	-7422
▁agregar	-7423
▁paredes	-7424
udos	-7425
▁cartas	-7426
▁investigaciones	-7427
▁app	-7428
▁rig	-7429
▁cinta	-7430
▁tol	-7431
▁reloj	-7432
tral	-7433
▁Música	-7434
▁EP	-7435
▁gafas	-7436
▁denuncia	-7437
▁científicos	-7438
▁municipales	-7439
aste	-7440
▁penal	-7441
ortun	-7442
▁afron	-7443
26	-7444
▁espalda	-7445
▁hermana	-7446
▁horarios	-7447
aso	-7448
▁positivo	-7449
▁eléctrico	-7450
▁Sierra	-7451
▁excelentes	-7452
▁infin	-7453
▁perspectiva	-7454
Le	-7455
▁dificultades	-7456
▁pade	-7457
▁USB	-7458
▁quitar	-7459
rem	-7460
’.	-7461
▁básicos	-7462
top	-7463
CE	-7464
▁Bil	-7465
presión	-7466
▁asesoramiento	-7467
quie	-7468
▁delito	-7469
▁conceptos	-7470
▁lector	-7471
▁probablemente	-7472
▁convirtió	-7473
▁cár	-7474
▁ancho	-7475
▁aña	-7476
▁Curso	-7477
▁Coci	-7478
▁aca	-7479
▁Descubre	-7480
▁conocidos	-7481
▁Semana	-7482
▁Mexic	-7483
ficientes	-7484
▁Noviembre	-7485
▁interesado	-7486
▁Oficina	-7487
▁chat	-7488
▁Atención	-7489
sin	-7490
▁editorial	-7491
▁musicales	-7492
eco	-7493
▁Bor	-7494
itados	-7495
▁smartph	-7496
36	-7497
▁subs	-7498
gráfico	-7499
▁Ingeniería	-7500
▁prevenir	-7501
sh	-7502
tedr	-7503
▁quis	-7504
iental	-7505
▁Wal	-7506
▁ceb	-7507
▁profundidad	-7508
▁barra	-7509
▁leyes	-7510
▁impuestos	-7511
▁Palacio	-7512
▁juez	-7513
▁jornadas	-7514
▁vesti	-7515
▁cuidados	-7516
ips	-7517
▁Ambiente	-7518
▁reemp	-7519
▁Asamblea	-7520
Ex	-7521
▁Ub	-7522
▁Taller	-7523
▁felicidad	-7524
RO	-7525
usos	-7526
▁reb	-7527
▁show	-7528
▁exclusivo	-7529
▁Reyes	-7530
▁Oficial	-7531
▁Tecnología	-7532
▁comprome	-7533
árez	-7534
▁pensamiento	-7535
▁piloto	-7536
▁situada	-7537
▁Empresas	-7538
▁actuaciones	-7539
app	-7540
▁75	-7541
▁grados	-7542
▁interesa	-7543
▁AB	-7544
▁electoral	-7545
▁feria	-7546
ilas	-7547
▁Regional	-7548
▁pertenece	-7549
cán	-7550
▁deuda	-7551
▁gimnas	-7552
▁registrado	-7553
vio	-7554
gica	-7555
ándole	-7556
endientes	-7557
ugía	-7558
▁equilibrio	-7559
▁enfoque	-7560
▁apartado	-7561
▁impul	-7562
iese	-7563
▁2007	-7564
work	-7565
▁brasile	-7566
▁gráfico	-7567
▁cuestiones	-7568
ets	-7569
▁estándar	-7570
▁directora	-7571
▁(200	-7572
▁representante	-7573
orar	-7574
▁comentó	-7575
▁vuelto	-7576
▁rein	-7577
▁financiera	-7578
▁Sud	-7579
▁mezcl	-7580
▁pensado	-7581
ye	-7582
▁talla	-7583
alizó	-7584
▁reglas	-7585
▁listado	-7586
zca	-7587
▁dormitorios	-7588
▁sospec	-7589
▁régimen	-7590
▁alternativas	-7591
▁Muchos	-7592
▁sexuales	-7593
▁asesina	-7594
idal	-7595
▁patrimonio	-7596
quía	-7597
▁cierta	-7598
▁inmediato	-7599
▁Ricardo	-7600
onald	-7601
▁brindar	-7602
cura	-7603
▁equiv	-7604
▁lectores	-7605
atemala	-7606
▁perteneci	-7607
▁capítulo	-7608
▁dependiendo	-7609
▁crit	-7610
úblico	-7611
cida	-7612
▁estatal	-7613
▁román	-7614
▁deportiva	-7615
▁consumidores	-7616
▁corriente	-7617
ábamos	-7618
▁be	-7619
augu	-7620
▁facilidad	-7621
▁dur	-7622
▁Electr	-7623
didas	-7624
▁Nicol	-7625
▁Fondo	-7626
▁Murcia	-7627
▁you	-7628
▁expectativas	-7629
▁volvió	-7630
▁figuras	-7631
▁potenci	-7632
▁generales	-7633
▁osc	-7634
▁Ul	-7635
▁vio	-7636
▁amantes	-7637
▁diferencias	-7638
▁inició	-7639
▁llegue	-7640
▁Cataluña	-7641
▁Glo	-7642
▁quieran	-7643
▁refiere	-7644
alax	-7645
áticamente	-7646
▁conflicto	-7647
unción	-7648
▁estrec	-7649
▁regalos	-7650
▁promociones	-7651
mbol	-7652
ings	-7653
▁Amazon	-7654
▁Bio	-7655
▁mete	-7656
dimiento	-7657
▁sp	-7658
▁2016.	-7659
ingü	-7660
▁CO	-7661
tuales	-7662
▁bandas	-7663
▁vestidos	-7664
▁privileg	-7665
▁otoño	-7666
▁merece	-7667
▁avión	-7668
irán	-7669
▁documentación	-7670
nidad	-7671
DO	-7672
▁reún	-7673
▁III	-7674
▁neum	-7675
▁temperaturas	-7676
tamen	-7677
itarias	-7678
▁Qué	-7679
▁demostrar	-7680
▁ahorro	-7681
▁diagnóstico	-7682
'.	-7683
▁cómoda	-7684
▁Podemos	-7685
ast	-7686
▁Año	-7687
▁referente	-7688
tand	-7689
▁Online	-7690
▁Capítulo	-7691
▁intento	-7692
▁llegaron	-7693
▁probable	-7694
▁World	-7695
▁amistad	-7696
▁Mayor	-7697
▁contemp	-7698
▁Tes	-7699
▁gor	-7700
▁disponibilidad	-7701
▁puente	-7702
áns	-7703
▁dosis	-7704
▁eng	-7705
▁instrucciones	-7706
▁Bu	-7707
▁interf	-7708
▁maestro	-7709
▁especialista	-7710
▁Público	-7711
▁estilos	-7712
▁actuar	-7713
▁ciudadanía	-7714
▁gobernador	-7715
▁Asturias	-7716
▁capacidades	-7717
▁realizadas	-7718
▁venir	-7719
▁afirma	-7720
fin	-7721
▁Datos	-7722
▁permita	-7723
▁mac	-7724
▁tiro	-7725
▁lesiones	-7726
▁muertos	-7727
▁correctamente	-7728
pañas	-7729
▁llen	-7730
▁estrés	-7731
▁seguramente	-7732
▁aparición	-7733
▁xD	-7734
▁som	-7735
▁recepción	-7736
▁it	-7737
▁difund	-7738
▁discos	-7739
▁Blanco	-7740
olla	-7741
▁click	-7742
▁finalizar	-7743
▁capacitación	-7744
▁Có	-7745
▁emocional	-7746
▁señala	-7747
-,	-7748
▁idiomas	-7749
icha	-7750
▁vertic	-7751
venciones	-7752
▁comisión	-7753
▁bienvenida	-7754
▁dele	-7755
▁Ce	-7756
ífic	-7757
▁automóvil	-7758
▁atractivo	-7759
▁ofreciendo	-7760
▁asunto	-7761
▁enfrentar	-7762
9)	-7763
▁defender	-7764
uena	-7765
ieren	-7766
▁Han	-7767
órico	-7768
▁maquilla	-7769
▁Promo	-7770
racia	-7771
▁restr	-7772
jería	-7773
▁dipl	-7774
venido	-7775
▁síntomas	-7776
partamentos	-7777
▁transformación	-7778
cita	-7779
▁implica	-7780
▁candidatos	-7781
mática	-7782
▁revisión	-7783
▁apa	-7784
▁maquinaria	-7785
▁250	-7786
▁educativa	-7787
lay	-7788
▁Gob	-7789
▁expan	-7790
▁parecen	-7791
▁abund	-7792
▁7.	-7793
▁Alta	-7794
▁terminó	-7795
anal	-7796
▁Media	-7797
▁bille	-7798
▁inspiración	-7799
▁estuv	-7800
▁naran	-7801
▁pasajeros	-7802
TOS	-7803
▁retos	-7804
▁normativa	-7805
▁Rosario	-7806
▁Us	-7807
▁Sebastián	-7808
▁laborales	-7809
▁Home	-7810
▁observar	-7811
▁ruedas	-7812
▁Octubre	-7813
▁pidió	-7814
▁cena	-7815
▁bancos	-7816
▁vot	-7817
▁Contra	-7818
▁Seguro	-7819
▁Sergio	-7820
▁consta	-7821
aridad	-7822
▁vuestra	-7823
▁enga	-7824
▁acepta	-7825
The	-7826
▁contará	-7827
▁apre	-7828
▁ponerse	-7829
▁comprob	-7830
▁favoritos	-7831
?.	-7832
▁recurso	-7833
▁manifestó	-7834
▁bolas	-7835
▁Consul	-7836
▁células	-7837
▁IP	-7838
▁cri	-7839
▁difusión	-7840
▁parecido	-7841
▁escritorio	-7842
izan	-7843
▁virus	-7844
▁extensión	-7845
▁urbano	-7846
▁brillante	-7847
▁prisión	-7848
▁IS	-7849
3)	-7850
ader	-7851
▁hosp	-7852
▁Mode	-7853
▁truc	-7854
▁fij	-7855
▁docente	-7856
▁tonos	-7857
▁fach	-7858
▁tac	-7859
▁trá	-7860
▁mister	-7861
▁luces	-7862
▁disfruta	-7863
▁regiones	-7864
onesa	-7865
▁votos	-7866
▁tendremos	-7867
▁reti	-7868
▁establecido	-7869
▁Samsung	-7870
tube	-7871
▁participaron	-7872
▁Apar	-7873
▁guardar	-7874
▁120	-7875
▁alemán	-7876
▁dejan	-7877
▁claves	-7878
▁Profesional	-7879
▁crítica	-7880
▁regreso	-7881
▁numerosas	-7882
▁dil	-7883
▁Cine	-7884
ua	-7885
▁transmisión	-7886
▁Ella	-7887
▁empresarios	-7888
▁design	-7889
▁declaración	-7890
ICI	-7891
▁guer	-7892
▁avance	-7893
▁mexicana	-7894
▁siguiendo	-7895
▁frutas	-7896
▁oscuro	-7897
▁Nicolás	-7898
▁adquis	-7899
▁avances	-7900
▁embarazo	-7901
▁ampliar	-7902
▁bonita	-7903
▁productores	-7904
▁techo	-7905
▁Compar	-7906
ax	-7907
eres	-7908
▁hiper	-7909
▁Rica	-7910
▁próximas	-7911
▁corresponde	-7912
▁inmig	-7913
▁Provincia	-7914
▁toca	-7915
▁altamente	-7916
▁Mira	-7917
▁alumno	-7918
▁considerado	-7919
▁agrup	-7920
▁salsa	-7921
▁Fabric	-7922
▁complicado	-7923
▁Roma	-7924
▁vías	-7925
▁Tritur	-7926
hua	-7927
icano	-7928
▁ojo	-7929
▁símbol	-7930
▁posiciones	-7931
oración	-7932
rey	-7933
▁dispu	-7934
▁invita	-7935
▁Dentro	-7936
▁fab	-7937
uría	-7938
▁lá	-7939
▁tuve	-7940
▁agradecer	-7941
DE	-7942
▁jap	-7943
▁peda	-7944
▁Sport	-7945
▁Sho	-7946
rana	-7947
▁artifici	-7948
▁Apro	-7949
▁cerebro	-7950
▁inquie	-7951
Que	-7952
▁manip	-7953
▁bebidas	-7954
▁individuales	-7955
▁invertir	-7956
laterra	-7957
▁Guatemala	-7958
▁participa	-7959
▁té	-7960
▁dias	-7961
28	-7962
▁haz	-7963
▁súper	-7964
▁documental	-7965
▁frase	-7966
iantes	-7967
-4	-7968
▁Virgen	-7969
▁encontraba	-7970
▁seleccionar	-7971
edras	-7972
▁previo	-7973
▁poca	-7974
▁botel	-7975
▁sostenible	-7976
▁límite	-7977
▁sentimientos	-7978
▁Alicante	-7979
▁Whats	-7980
inando	-7981
▁Recuer	-7982
rome	-7983
▁barato	-7984
▁Marketing	-7985
áficas	-7986
▁brinda	-7987
▁aquello	-7988
▁multitud	-7989
▁celebrará	-7990
▁Anun	-7991
▁ciertos	-7992
▁implementación	-7993
▁veter	-7994
▁masaje	-7995
▁hábitos	-7996
tipo	-7997
▁jamás	-7998
▁ponen	-7999
Más	-8000
▁Eduardo	-8001
▁195	-8002
▁hagan	-8003
▁algodón	-8004
▁cafe	-8005
▁garantiza	-8006
▁discapacidad	-8007
▁Kar	-8008
ándonos	-8009
▁Artículo	-8010
▁convenio	-8011
▁hermoso	-8012
tle	-8013
▁Tanto	-8014
¡¡	-8015
▁retra	-8016
▁Wi	-8017
▁corrupción	-8018
▁emergencia	-8019
▁Guadal	-8020
▁cuestion	-8021
▁lóg	-8022
▁competencias	-8023
▁cro	-8024
▁creada	-8025
▁PRO	-8026
▁cho	-8027
▁rinc	-8028
uerzo	-8029
▁Martin	-8030
▁seguido	-8031
icar	-8032
▁Van	-8033
▁explicar	-8034
tellano	-8035
▁respectivamente	-8036
▁bajos	-8037
98	-8038
▁incluidos	-8039
▁act	-8040
▁Ref	-8041
▁encabez	-8042
▁factor	-8043
▁RE	-8044
ariamente	-8045
iterrán	-8046
ondas	-8047
▁límites	-8048
▁film	-8049
way	-8050
▁2015,	-8051
▁diaria	-8052
bao	-8053
▁gestionar	-8054
▁viejo	-8055
▁organizar	-8056
▁incend	-8057
▁5,	-8058
aval	-8059
▁podamos	-8060
▁Char	-8061
▁Haci	-8062
▁juega	-8063
▁reduci	-8064
▁influencia	-8065
▁calent	-8066
▁ejemplos	-8067
▁medicamentos	-8068
oth	-8069
▁Precio	-8070
▁cargos	-8071
▁uniform	-8072
▁hierro	-8073
▁casual	-8074
izaciones	-8075
iona	-8076
▁medicina	-8077
▁territor	-8078
▁precisión	-8079
▁característica	-8080
▁diversidad	-8081
▁curios	-8082
itorio	-8083
▁Mercado	-8084
▁económicas	-8085
drás	-8086
▁camiseta	-8087
▁Provincial	-8088
▁0.	-8089
▁jeje	-8090
▁aspir	-8091
orca	-8092
▁maquillaje	-8093
▁Dom	-8094
▁árbol	-8095
▁Calle	-8096
▁Crea	-8097
▁rueda	-8098
▁informado	-8099
▁horizon	-8100
aqueta	-8101
▁hidro	-8102
▁Cual	-8103
▁harán	-8104
▁residuos	-8105
▁conciertos	-8106
▁paisaje	-8107
▁CN	-8108
▁Tab	-8109
▁esque	-8110
ánsito	-8111
uo	-8112
▁instrumentos	-8113
▁fibra	-8114
▁cortes	-8115
▁cifras	-8116
▁Tres	-8117
▁ano	-8118
▁creer	-8119
jeron	-8120
▁experto	-8121
▁pulgadas	-8122
▁humanidad	-8123
▁concentración	-8124
▁montón	-8125
▁sobreviv	-8126
▁Resta	-8127
▁Americ	-8128
wood	-8129
licas	-8130
▁deba	-8131
▁ilusión	-8132
▁cuarta	-8133
▁parcial	-8134
entario	-8135
érpre	-8136
▁autoridad	-8137
GB	-8138
▁abogado	-8139
▁hip	-8140
érico	-8141
ej	-8142
▁árboles	-8143
▁nace	-8144
▁mirar	-8145
SA	-8146
▁potente	-8147
tander	-8148
▁mínima	-8149
▁Sy	-8150
▁inmobil	-8151
ecas	-8152
▁Bern	-8153
▁One	-8154
▁debut	-8155
TV	-8156
▁Ese	-8157
iger	-8158
ólica	-8159
▁met	-8160
▁frases	-8161
▁VI	-8162
▁ino	-8163
▁Angel	-8164
▁ducha	-8165
▁Ll	-8166
▁destacado	-8167
acu	-8168
lash	-8169
usias	-8170
▁confi	-8171
▁Peña	-8172
olos	-8173
▁file	-8174
▁acred	-8175
▁galería	-8176
▁desactiv	-8177
▁Carta	-8178
▁reper	-8179
lico	-8180
iernos	-8181
▁Naciones	-8182
▁by	-8183
▁PARA	-8184
▁fotógraf	-8185
▁movilidad	-8186
▁industriales	-8187
▁IM	-8188
▁profundo	-8189
▁Sir	-8190
▁campañas	-8191
▁caj	-8192
▁llan	-8193
▁petición	-8194
▁Parti	-8195
▁ocurrió	-8196
▁conces	-8197
▁retras	-8198
▁arras	-8199
▁imprimir	-8200
27	-8201
▁campeonato	-8202
▁Simp	-8203
▁Libre	-8204
▁44	-8205
▁fundamentales	-8206
▁mental	-8207
▁auxil	-8208
efacción	-8209
▁Vas	-8210
▁excl	-8211
▁romp	-8212
▁Zapatos	-8213
▁Exp	-8214
▁fortalecer	-8215
▁publicaciones	-8216
tn	-8217
étr	-8218
▁excelencia	-8219
▁cooperación	-8220
ser	-8221
▁Tem	-8222
▁comentar	-8223
pedes	-8224
▁inaugu	-8225
▁conservación	-8226
▁cero	-8227
ocas	-8228
▁mejoras	-8229
igna	-8230
▁Israel	-8231
▁distrito	-8232
▁gastronomía	-8233
▁SAN	-8234
▁hablamos	-8235
▁Jard	-8236
▁audiencia	-8237
ólogos	-8238
▁norma	-8239
▁ceremonia	-8240
▁encontrará	-8241
abilidades	-8242
▁grav	-8243
▁Corpor	-8244
▁Campeonato	-8245
▁encargado	-8246
▁exactamente	-8247
Fi	-8248
usiones	-8249
▁legales	-8250
▁Azul	-8251
ículas	-8252
▁Motor	-8253
▁narra	-8254
▁realizados	-8255
▁porcentaje	-8256
enco	-8257
▁Castro	-8258
▁disput	-8259
▁cubierta	-8260
▁destacan	-8261
lix	-8262
▁Orig	-8263
▁estacion	-8264
33	-8265
CH	-8266
▁bailar	-8267
▁decide	-8268
▁pdf	-8269
ivar	-8270
▁suspens	-8271
▁emi	-8272
▁toc	-8273
IZ	-8274
▁Panamá	-8275
▁Santos	-8276
gando	-8277
▁atac	-8278
▁especializados	-8279
▁seria	-8280
ÍA	-8281
merc	-8282
▁salas	-8283
▁Blanca	-8284
▁termina	-8285
▁malo	-8286
▁aplica	-8287
▁55	-8288
▁diferenci	-8289
dría	-8290
▁confort	-8291
fal	-8292
tarán	-8293
▁600	-8294
▁hig	-8295
▁muerto	-8296
▁Zona	-8297
▁agenda	-8298
▁hués	-8299
▁patio	-8300
▁Austral	-8301
▁igualdad	-8302
▁expon	-8303
▁productor	-8304
▁jugando	-8305
▁famosa	-8306
▁anteriormente	-8307
▁City	-8308
▁silencio	-8309
▁Libro	-8310
▁navegar	-8311
0,	-8312
▁extranjero	-8313
kin	-8314
▁Cá	-8315
▁cartel	-8316
▁tradu	-8317
▁circunstancias	-8318
▁Pub	-8319
endido	-8320
▁reflexión	-8321
▁financiación	-8322
iler	-8323
▁filosofía	-8324
▁Rico	-8325
ibil	-8326
tencia	-8327
▁Felipe	-8328
▁pus	-8329
▁LED	-8330
▁Reci	-8331
▁India	-8332
▁resistente	-8333
▁emit	-8334
aqu	-8335
▁tonel	-8336
▁ciertas	-8337
razgo	-8338
▁pagos	-8339
▁construc	-8340
▁existentes	-8341
uj	-8342
▁Den	-8343
▁histórica	-8344
cula	-8345
▁Tim	-8346
▁2019	-8347
▁adaptación	-8348
▁hoja	-8349
▁Gro	-8350
menta	-8351
▁Roberto	-8352
▁recomendaciones	-8353
▁despe	-8354
▁procedimientos	-8355
▁inmediatamente	-8356
▁Tro	-8357
▁nieve	-8358
▁consist	-8359
▁turistas	-8360
▁modalidad	-8361
▁Video	-8362
onde	-8363
denas	-8364
GO	-8365
▁detall	-8366
▁saga	-8367
▁matem	-8368
umbre	-8369
@@	-8370
▁CA	-8371
inadas	-8372
▁mando	-8373
▁desh	-8374
tilic	-8375
▁aumenta	-8376
▁estabilidad	-8377
▁Jud	-8378
▁portu	-8379
▁Lea	-8380
▁sinc	-8381
▁vín	-8382
▁bicicleta	-8383
▁Nego	-8384
▁Academia	-8385
▁indicado	-8386
▁vuestro	-8387
illera	-8388
▁agente	-8389
▁Bre	-8390
▁8.	-8391
▁crim	-8392
▁aviso	-8393
sula	-8394
▁Canadá	-8395
▁personalizado	-8396
▁vigente	-8397
Para	-8398
▁Gen	-8399
▁olvidar	-8400
▁entusias	-8401
uelve	-8402
▁accion	-8403
▁ahorrar	-8404
▁estreno	-8405
▁favorito	-8406
▁decorar	-8407
tría	-8408
▁humedad	-8409
rica	-8410
▁Lar	-8411
▁europeo	-8412
▁turno	-8413
▁vinos	-8414
▁Marcel	-8415
▁iniciativas	-8416
▁gato	-8417
▁galard	-8418
▁infantiles	-8419
▁enrique	-8420
▁Rol	-8421
trocin	-8422
▁arma	-8423
▁ayudará	-8424
▁Código	-8425
▁integrado	-8426
ícola	-8427
tif	-8428
▁Incluye	-8429
▁aporte	-8430
▁trimestre	-8431
▁provincial	-8432
▁intérpre	-8433
vias	-8434
▁Inglaterra	-8435
▁imprescindible	-8436
Yo	-8437
lle	-8438
▁examen	-8439
▁impresionante	-8440
▁inspec	-8441
▁cabe	-8442
▁Local	-8443
▁Calidad	-8444
▁infancia	-8445
azz	-8446
nal	-8447
▁65	-8448
▁prepara	-8449
▁médica	-8450
▁bañ	-8451
▁My	-8452
▁arroz	-8453
▁cerveza	-8454
cimientos	-8455
▁Leon	-8456
▁captur	-8457
▁necesitamos	-8458
▁madres	-8459
▁definición	-8460
itó	-8461
▁plane	-8462
ption	-8463
▁brazos	-8464
▁sorteo	-8465
▁usados	-8466
▁producido	-8467
▁culo	-8468
▁cambiado	-8469
▁ecu	-8470
▁pop	-8471
▁cariño	-8472
▁tribu	-8473
▁glob	-8474
▁básico	-8475
▁recurr	-8476
▁definir	-8477
▁37	-8478
fil	-8479
▁sombra	-8480
▁presentamos	-8481
ots	-8482
▁Ramón	-8483
▁encanto	-8484
▁dispuesto	-8485
▁interiores	-8486
▁previamente	-8487
▁Torres	-8488
▁ingenier	-8489
▁Supre	-8490
▁dimensiones	-8491
▁informes	-8492
▁vidrio	-8493
íg	-8494
▁frac	-8495
▁Oper	-8496
pers	-8497
65	-8498
▁serio	-8499
ctur	-8500
igual	-8501
▁únicos	-8502
▁creando	-8503
▁Ciencia	-8504
iadas	-8505
▁declaró	-8506
▁Sta	-8507
▁gay	-8508
▁Bolivia	-8509
▁recuerdos	-8510
▁deportivas	-8511
▁composición	-8512
▁Dol	-8513
▁veget	-8514
▁federal	-8515
▁exces	-8516
▁sucede	-8517
▁Segunda	-8518
TS	-8519
asas	-8520
▁mesas	-8521
▁educativos	-8522
▁aden	-8523
▁requieren	-8524
▁muñ	-8525
press	-8526
ándolo	-8527
▁Empleo	-8528
▁Unidas	-8529
▁econom	-8530
▁aisl	-8531
age	-8532
▁Ó	-8533
itis	-8534
▁desl	-8535
▁clásicos	-8536
▁Portugal	-8537
▁cup	-8538
▁Paul	-8539
▁afectados	-8540
▁carro	-8541
▁ataques	-8542
▁circulación	-8543
icias	-8544
▁monum	-8545
▁tierras	-8546
▁pronunci	-8547
21	-8548
▁cuáles	-8549
▁Constitución	-8550
mana	-8551
▁teoría	-8552
▁inversiones	-8553
▁antiguos	-8554
▁saludo	-8555
▁turístico	-8556
▁hol	-8557
ward	-8558
▁top	-8559
▁paral	-8560
▁emble	-8561
▁cuerpos	-8562
▁delantero	-8563
▁tranquilo	-8564
▁significado	-8565
into	-8566
▁CH	-8567
▁cuidar	-8568
▁aceler	-8569
▁femenino	-8570
▁juz	-8571
ajara	-8572
▁eje	-8573
▁GRA	-8574
▁maestros	-8575
taña	-8576
▁normalmente	-8577
▁LOS	-8578
▁combinar	-8579
▁intensidad	-8580
▁Bomb	-8581
▁pata	-8582
▁tensión	-8583
▁Fiscalía	-8584
.....	-8585
▁CR	-8586
ACIÓN	-8587
▁armon	-8588
▁navidad	-8589
ámico	-8590
▁preguntar	-8591
▁residencia	-8592
peta	-8593
▁incom	-8594
▁comparación	-8595
▁cóm	-8596
▁IV	-8597
▁satisfacer	-8598
▁TR	-8599
▁tanta	-8600
▁piernas	-8601
▁tomando	-8602
▁dios	-8603
▁interno	-8604
▁(5	-8605
▁Priv	-8606
▁ronda	-8607
▁drogas	-8608
▁fenómeno	-8609
itamos	-8610
▁mante	-8611
avo	-8612
▁divertida	-8613
▁ocupa	-8614
▁POR	-8615
▁mini	-8616
▁raíz	-8617
▁decidir	-8618
▁recoger	-8619
▁gustos	-8620
▁sufrir	-8621
▁inmediata	-8622
▁resumen	-8623
tions	-8624
▁Blue	-8625
gulo	-8626
▁hí	-8627
▁haces	-8628
▁consent	-8629
▁Ángeles	-8630
▁maneras	-8631
▁sonrisa	-8632
▁aventuras	-8633
▁hue	-8634
ah	-8635
▁Públic	-8636
▁calzado	-8637
▁escul	-8638
ries	-8639
▁bosque	-8640
▁cuentos	-8641
▁terminal	-8642
▁huevos	-8643
▁coordinación	-8644
▁Gir	-8645
▁polém	-8646
▁Nación	-8647
▁limpia	-8648
▁Bajo	-8649
▁proven	-8650
▁Len	-8651
▁lám	-8652
▁set	-8653
▁minerales	-8654
▁Septiembre	-8655
▁querer	-8656
gl	-8657
▁rica	-8658
▁modificar	-8659
▁Sue	-8660
inter	-8661
▁Selección	-8662
Mar	-8663
▁fresco	-8664
▁Fan	-8665
▁Dominicana	-8666
▁Precios	-8667
▁bron	-8668
UP	-8669
▁Indepen	-8670
lecom	-8671
▁Wash	-8672
bia	-8673
americanos	-8674
▁Gust	-8675
▁discurso	-8676
▁asociaciones	-8677
tración	-8678
▁argentina	-8679
▁maravilloso	-8680
▁ador	-8681
▁balance	-8682
▁Autónoma	-8683
▁guitarra	-8684
▁Jack	-8685
▁explos	-8686
▁Guía	-8687
▁reproduc	-8688
▁!	-8689
▁Fut	-8690
▁Docum	-8691
▁Registro	-8692
UT	-8693
polit	-8694
▁basa	-8695
▁noctur	-8696
▁salen	-8697
▁limpiar	-8698
▁judicial	-8699
▁considerar	-8700
▁financiero	-8701
▁Sexo	-8702
ajaja	-8703
olvid	-8704
▁Canarias	-8705
▁laboratorio	-8706
▁Victoria	-8707
▁out	-8708
▁conducir	-8709
▁traer	-8710
▁agar	-8711
▁utilizados	-8712
▁MAR	-8713
▁refr	-8714
▁robo	-8715
▁conforme	-8716
▁destinos	-8717
ónimo	-8718
▁orientación	-8719
▁buc	-8720
▁nomin	-8721
▁transmitir	-8722
Tube	-8723
▁Espaci	-8724
▁escapar	-8725
44	-8726
EE	-8727
▁bajas	-8728
▁calific	-8729
▁verlo	-8730
▁(3)	-8731
iertas	-8732
▁graves	-8733
▁imagenes	-8734
amar	-8735
77	-8736
▁placa	-8737
▁comidas	-8738
▁Alto	-8739
▁mari	-8740
▁clínica	-8741
▁científico	-8742
▁fábrica	-8743
▁exclusivamente	-8744
▁lament	-8745
▁profunda	-8746
▁gasto	-8747
▁rema	-8748
▁Marco	-8749
▁Productos	-8750
▁Santander	-8751
▁aficionados	-8752
ueso	-8753
ariales	-8754
▁verdes	-8755
ija	-8756
▁limpio	-8757
▁secues	-8758
idra	-8759
▁hilo	-8760
▁llevo	-8761
▁Defensa	-8762
▁navegando	-8763
▁delic	-8764
tones	-8765
▁Salón	-8766
▁Cooper	-8767
▁enseñar	-8768
▁periodistas	-8769
▁Era	-8770
/2018	-8771
▁tum	-8772
▁Anim	-8773
▁confec	-8774
lim	-8775
▁restos	-8776
▁recientes	-8777
fol	-8778
fera	-8779
▁esperan	-8780
▁lanzado	-8781
▁Galicia	-8782
▁Respon	-8783
▁mostró	-8784
▁consejo	-8785
▁personalizada	-8786
▁pap	-8787
tumbr	-8788
▁combina	-8789
▁vicepres	-8790
▁madru	-8791
▁precioso	-8792
▁beso	-8793
▁confirmó	-8794
▁generalmente	-8795
iss	-8796
cript	-8797
▁Haz	-8798
▁poesía	-8799
0.	-8800
bur	-8801
taba	-8802
▁Far	-8803
▁Mana	-8804
▁perdió	-8805
▁luchar	-8806
▁inscrib	-8807
▁proveedor	-8808
▁Wil	-8809
▁salvo	-8810
▁Castillo	-8811
▁interpretación	-8812
cara	-8813
▁autobús	-8814
▁descans	-8815
▁desempeño	-8816
▁ign	-8817
my	-8818
egas	-8819
▁académico	-8820
▁frontera	-8821
▁:)	-8822
▁Log	-8823
dy	-8824
▁manifest	-8825
▁Cabe	-8826
▁tarifa	-8827
▁Nunca	-8828
▁dichos	-8829
▁Allí	-8830
▁Tama	-8831
▁Vida	-8832
▁ocio	-8833
▁Padre	-8834
▁complement	-8835
▁imaginación	-8836
▁mensual	-8837
▁amenaza	-8838
▁testimon	-8839
▁pendiente	-8840
Ac	-8841
▁Diario	-8842
▁Rem	-8843
▁2014,	-8844
▁ligero	-8845
▁ingresar	-8846
▁sumar	-8847
▁Gratis	-8848
▁EX	-8849
▁Quiz	-8850
▁Mich	-8851
▁ausencia	-8852
▁universidades	-8853
etín	-8854
▁permitido	-8855
▁delitos	-8856
▁motores	-8857
énez	-8858
▁flujo	-8859
▁Herman	-8860
cipe	-8861
tock	-8862
▁escenarios	-8863
▁llegará	-8864
▁demostrado	-8865
▁realizaron	-8866
▁arre	-8867
▁efectiva	-8868
▁División	-8869
▁organiza	-8870
▁Gobern	-8871
▁Medicina	-8872
cesto	-8873
▁esencia	-8874
▁elaborado	-8875
▁pisos	-8876
▁Debido	-8877
▁probabilidad	-8878
▁ayudas	-8879
▁extremo	-8880
▁audiovis	-8881
▁mostramos	-8882
tano	-8883
▁usan	-8884
aduras	-8885
▁exceso	-8886
▁sentencia	-8887
▁videojuegos	-8888
▁Clín	-8889
▁Princip	-8890
▁extranjeros	-8891
▁revisar	-8892
ulaciones	-8893
úcle	-8894
lesias	-8895
incu	-8896
tara	-8897
▁cercana	-8898
▁presidenta	-8899
▁letra	-8900
▁acudir	-8901
▁apariencia	-8902
▁estructuras	-8903
▁nub	-8904
▁decora	-8905
▁Lanto	-8906
▁marido	-8907
▁gradu	-8908
▁piensa	-8909
▁ideales	-8910
▁molde	-8911
▁intenta	-8912
▁Guer	-8913
▁nacido	-8914
▁profesión	-8915
▁feste	-8916
▁accidentes	-8917
▁contribuir	-8918
▁automáticamente	-8919
▁recl	-8920
▁cárcel	-8921
▁instalado	-8922
atch	-8923
itivamente	-8924
▁minim	-8925
▁pasta	-8926
▁satisfec	-8927
icen	-8928
▁rique	-8929
▁dije	-8930
▁Bilbao	-8931
▁hall	-8932
▁pistas	-8933
▁oral	-8934
▁estaciones	-8935
domin	-8936
▁Interior	-8937
▁Nie	-8938
▁intenso	-8939
▁conducción	-8940
▁dueño	-8941
▁seco	-8942
ónicas	-8943
▁división	-8944
▁dedica	-8945
▁caminos	-8946
▁Latinoamérica	-8947
cedes	-8948
▁combate	-8949
utados	-8950
▁ánimo	-8951
▁aparte	-8952
▁cuadrados	-8953
▁pelic	-8954
▁extrem	-8955
▁desb	-8956
▁superiores	-8957
iciembre	-8958
▁Escorts	-8959
▁equival	-8960
▁pierdas	-8961
▁Washington	-8962
▁aust	-8963
▁vs	-8964
▁link	-8965
tán	-8966
▁cajas	-8967
▁fomentar	-8968
▁quizá	-8969
▁verduras	-8970
▁dormitorio	-8971
38	-8972
▁Inglés	-8973
▁Fun	-8974
▁terap	-8975
▁inal	-8976
▁ladr	-8977
▁utilidad	-8978
▁liqu	-8979
▁Poder	-8980
▁necesitar	-8981
SOE	-8982
stos	-8983
▁panel	-8984
▁Isla	-8985
▁paro	-8986
▁privadas	-8987
▁piedras	-8988
▁jurado	-8989
▁Cristina	-8990
▁diversión	-8991
ture	-8992
allas	-8993
▁francesa	-8994
▁recorrer	-8995
68	-8996
entan	-8997
▁Algunas	-8998
▁inolvid	-8999
▁colombiano	-9000
/200	-9001
ídos	-9002
▁Vicente	-9003
▁contratar	-9004
taje	-9005
▁Arquitec	-9006
hael	-9007
▁combatir	-9008
▁Inc	-9009
▁Innov	-9010
vez	-9011
ucar	-9012
▁ruido	-9013
cionado	-9014
▁(4	-9015
▁roman	-9016
▁positiva	-9017
▁criterios	-9018
▁Biblioteca	-9019
▁lev	-9020
fos	-9021
▁millón	-9022
▁trabajado	-9023
▁Fa	-9024
▁Amor	-9025
gir	-9026
▁ater	-9027
▁añade	-9028
varez	-9029
▁mamá	-9030
▁torm	-9031
▁dud	-9032
▁Serv	-9033
▁inicia	-9034
▁recaud	-9035
▁Blo	-9036
▁despues	-9037
▁primaria	-9038
▁preocupación	-9039
dares	-9040
▁Trad	-9041
▁colon	-9042
▁poniendo	-9043
▁Mesa	-9044
▁harina	-9045
▁pudiera	-9046
▁zapatillas	-9047
ubr	-9048
▁lateral	-9049
▁museo	-9050
▁críticas	-9051
,,	-9052
guna	-9053
▁Ray	-9054
▁James	-9055
▁imped	-9056
▁útiles	-9057
▁liga	-9058
▁estuvieron	-9059
óp	-9060
▁Capital	-9061
▁indígen	-9062
▁une	-9063
ífica	-9064
▁depos	-9065
▁vende	-9066
EX	-9067
▁esquina	-9068
▁facebook	-9069
ions	-9070
dicas	-9071
ierte	-9072
▁asociados	-9073
▁lac	-9074
▁reservas	-9075
▁participado	-9076
▁Read	-9077
▁urban	-9078
▁celebró	-9079
34	-9080
39	-9081
▁Mej	-9082
▁añadió	-9083
▁españolas	-9084
ficio	-9085
▁fui	-9086
▁admi	-9087
amanca	-9088
▁amarillo	-9089
▁huéspedes	-9090
▁brillo	-9091
ilio	-9092
▁this	-9093
▁Existen	-9094
daje	-9095
▁Rock	-9096
▁instrumento	-9097
▁constantemente	-9098
▁funcionar	-9099
▁Vamos	-9100
uran	-9101
▁sobres	-9102
▁Ren	-9103
▁Europeo	-9104
▁consultas	-9105
▁tomó	-9106
Po	-9107
▁Esa	-9108
▁Abog	-9109
illermo	-9110
▁Anuncios	-9111
▁mantienen	-9112
▁Moreno	-9113
▁ademas	-9114
▁descubre	-9115
▁baile	-9116
íficamente	-9117
écord	-9118
▁siglos	-9119
▁estándares	-9120
alista	-9121
▁probado	-9122
▁publica	-9123
▁Hen	-9124
▁escoger	-9125
▁detenido	-9126
____	-9127
▁exc	-9128
▁Flores	-9129
▁preserv	-9130
▁tarifas	-9131
▁ultra	-9132
▁practicar	-9133
▁2015.	-9134
▁patrocin	-9135
▁romper	-9136
▁Torn	-9137
▁constituye	-9138
▁ficción	-9139
▁permiso	-9140
▁Accesorios	-9141
▁solucionar	-9142
uera	-9143
▁Psic	-9144
▁Mall	-9145
▁moneda	-9146
▁Decreto	-9147
▁celebrado	-9148
▁conferencias	-9149
▁rehabilitación	-9150
▁Acción	-9151
▁institucional	-9152
29	-9153
▁Encon	-9154
▁Fab	-9155
ule	-9156
▁Pes	-9157
▁eficacia	-9158
Una	-9159
▁octa	-9160
tología	-9161
VD	-9162
ml	-9163
▁ocurrido	-9164
CD	-9165
▁Ka	-9166
▁Ases	-9167
▁Stor	-9168
tinos	-9169
▁llegando	-9170
sticas	-9171
▁Porno	-9172
▁formatos	-9173
▁Oscar	-9174
▁dificultad	-9175
ursos	-9176
▁fiel	-9177
▁propietarios	-9178
▁puro	-9179
▁Extre	-9180
▁añadido	-9181
ADA	-9182
ítico	-9183
▁juguetes	-9184
▁buscas	-9185
▁Revista	-9186
book	-9187
iedades	-9188
▁tapa	-9189
▁comunicaciones	-9190
▁SO	-9191
▁bancar	-9192
▁sorprender	-9193
rob	-9194
▁financieros	-9195
▁10.	-9196
▁leído	-9197
▁invitamos	-9198
▁descripción	-9199
▁toneladas	-9200
▁tomado	-9201
▁Técnico	-9202
▁conversación	-9203
trop	-9204
▁Prop	-9205
▁Luna	-9206
▁divul	-9207
tinas	-9208
▁ED	-9209
▁charla	-9210
▁decía	-9211
ness	-9212
▁ninguno	-9213
▁razon	-9214
▁salvar	-9215
▁cuadros	-9216
taría	-9217
tito	-9218
▁Ign	-9219
▁demuestra	-9220
▁roja	-9221
▁acuerdos	-9222
▁expansión	-9223
▁Agua	-9224
▁caracteriza	-9225
▁relacionada	-9226
▁impuesto	-9227
gro	-9228
junto	-9229
▁some	-9230
▁EEUU	-9231
▁elig	-9232
▁lados	-9233
Quieres	-9234
▁transferencia	-9235
GT	-9236
▁voto	-9237
▁organismos	-9238
▁compl	-9239
▁minist	-9240
▁naranja	-9241
▁fes	-9242
toría	-9243
▁contratos	-9244
▁arque	-9245
▁sello	-9246
▁inser	-9247
▁exquis	-9248
enses	-9249
tificado	-9250
▁Contamos	-9251
▁tenéis	-9252
▁diputado	-9253
▁Ran	-9254
▁Región	-9255
▁--	-9256
▁femenina	-9257
▁pac	-9258
▁obtuvo	-9259
▁eléctricos	-9260
▁científica	-9261
▁Puer	-9262
uelva	-9263
radores	-9264
▁implement	-9265
uar	-9266
rile	-9267
etidos	-9268
lecomun	-9269
▁listas	-9270
-5	-9271
▁Fon	-9272
▁2006	-9273
▁sabía	-9274
▁organizada	-9275
▁barco	-9276
▁clasific	-9277
▁prestaciones	-9278
pot	-9279
▁cans	-9280
▁increment	-9281
▁Adri	-9282
xidable	-9283
▁Pág	-9284
▁ejecutivo	-9285
▁etapas	-9286
▁intr	-9287
▁práctico	-9288
▁firme	-9289
ésticos	-9290
▁dinámica	-9291
▁EM	-9292
▁Wh	-9293
▁Guadalajara	-9294
37	-9295
ensor	-9296
▁provincias	-9297
adolid	-9298
▁complemento	-9299
jada	-9300
trices	-9301
▁veremos	-9302
▁temporal	-9303
▁novio	-9304
▁combustible	-9305
▁rebaj	-9306
▁Australia	-9307
▁unión	-9308
▁YouTube	-9309
▁diciendo	-9310
▁Esco	-9311
▁inn	-9312
▁informar	-9313
▁pudieron	-9314
▁cau	-9315
enario	-9316
iéndose	-9317
▁automática	-9318
▁revistas	-9319
ENT	-9320
▁Lit	-9321
▁automa	-9322
▁dijeron	-9323
▁sit	-9324
▁cosm	-9325
▁lanzó	-9326
▁fracas	-9327
▁militares	-9328
▁ben	-9329
▁bode	-9330
▁orgullos	-9331
▁preciosa	-9332
▁Vel	-9333
▁Donald	-9334
▁pedidos	-9335
▁fum	-9336
▁Pens	-9337
utamente	-9338
ania	-9339
▁facilita	-9340
▁beca	-9341
▁bord	-9342
▁Financi	-9343
▁Maur	-9344
▁específico	-9345
▁Aragón	-9346
▁índice	-9347
▁prevent	-9348
▁entretenimiento	-9349
▁vestir	-9350
66	-9351
▁Activ	-9352
As	-9353
▁adapta	-9354
▁Master	-9355
▁Guillermo	-9356
▁Estudio	-9357
▁Urb	-9358
▁bolsas	-9359
▁Encuentro	-9360
▁Edi	-9361
▁amable	-9362
▁impulsar	-9363
ence	-9364
▁Incluso	-9365
▁cantidades	-9366
TC	-9367
▁intelectual	-9368
▁Hacienda	-9369
▁Editor	-9370
gia	-9371
oces	-9372
▁Sar	-9373
▁Playa	-9374
▁ocupar	-9375
oluciones	-9376
▁tejidos	-9377
▁decl	-9378
rible	-9379
▁pobreza	-9380
▁fisc	-9381
▁rutina	-9382
▁marcado	-9383
▁repetir	-9384
▁fórmula	-9385
▁semin	-9386
▁39	-9387
umpl	-9388
▁caminar	-9389
▁evidente	-9390
▁pendientes	-9391
tróleo	-9392
▁presentaciones	-9393
tus	-9394
▁ayudarte	-9395
▁pá	-9396
enciana	-9397
▁labores	-9398
▁vege	-9399
▁pur	-9400
▁voces	-9401
▁DES	-9402
antán	-9403
!.	-9404
▁suple	-9405
▁importe	-9406
▁legisla	-9407
tumb	-9408
▁webs	-9409
▁consiguió	-9410
▁acostumbr	-9411
mall	-9412
▁agro	-9413
▁claramente	-9414
▁rango	-9415
▁Aren	-9416
▁darse	-9417
▁producen	-9418
▁Buenas	-9419
▁portavoz	-9420
▁6,	-9421
▁liger	-9422
▁totalidad	-9423
▁42	-9424
▁fáciles	-9425
▁AF	-9426
emato	-9427
▁test	-9428
▁pastel	-9429
oros	-9430
eth	-9431
▁salido	-9432
ámenes	-9433
▁montar	-9434
PE	-9435
▁alber	-9436
▁iOS	-9437
▁cancha	-9438
▁récord	-9439
▁biblioteca	-9440
▁fascin	-9441
▁duelo	-9442
▁episodio	-9443
ress	-9444
▁irreg	-9445
▁cirugía	-9446
▁encontró	-9447
▁temática	-9448
▁esenciales	-9449
▁permanecer	-9450
▁recol	-9451
GA	-9452
gip	-9453
▁participó	-9454
▁contratación	-9455
▁mexicanos	-9456
▁excepcional	-9457
▁Futbol	-9458
eck	-9459
▁Limp	-9460
▁encantan	-9461
▁PSOE	-9462
▁democracia	-9463
vera	-9464
▁Cro	-9465
▁fruta	-9466
▁Cic	-9467
▁deseos	-9468
▁acer	-9469
▁básica	-9470
▁Sig	-9471
▁Junio	-9472
▁creciendo	-9473
▁tenia	-9474
▁firmas	-9475
▁deportivos	-9476
ego	-9477
▁Doctor	-9478
▁instante	-9479
▁refres	-9480
▁Michael	-9481
▁textura	-9482
▁Ade	-9483
▁calefacción	-9484
idác	-9485
▁responde	-9486
ht	-9487
▁discu	-9488
▁Isabel	-9489
▁Pap	-9490
▁complementos	-9491
geno	-9492
▁Resolución	-9493
trans	-9494
▁amigas	-9495
▁importar	-9496
▁Bat	-9497
gación	-9498
▁aprobación	-9499
........	-9500
▁bodas	-9501
Ad	-9502
lav	-9503
▁consult	-9504
ony	-9505
▁cortar	-9506
▁Moda	-9507
Este	-9508
▁Relaciones	-9509
ív	-9510
▁navide	-9511
▁Asia	-9512
▁secretos	-9513
▁sujeto	-9514
▁hola	-9515
ósitos	-9516
dra	-9517
▁Caf	-9518
▁tác	-9519
▁ejercer	-9520
▁quedarse	-9521
CIONES	-9522
▁materias	-9523
nado	-9524
▁Estra	-9525
▁polic	-9526
EB	-9527
▁Canal	-9528
▁drama	-9529
▁muestras	-9530
▁Descargar	-9531
ges	-9532
uth	-9533
ALES	-9534
▁Serie	-9535
▁Lee	-9536
▁Verde	-9537
▁excur	-9538
▁difíciles	-9539
▁terminado	-9540
▁aval	-9541
▁Videos	-9542
▁recoge	-9543
ling	-9544
▁privados	-9545
App	-9546
colo	-9547
dados	-9548
▁Distrito	-9549
▁(4)	-9550
▁ox	-9551
▁mineral	-9552
▁Infantil	-9553
▁180	-9554
▁goma	-9555
CN	-9556
▁bolso	-9557
▁casco	-9558
▁Primero	-9559
▁núcle	-9560
oncesto	-9561
▁Equipo	-9562
iti	-9563
▁enve	-9564
▁bebés	-9565
▁estaría	-9566
▁proyección	-9567
grad	-9568
▁castellano	-9569
▁800	-9570
▁aci	-9571
▁gobiernos	-9572
▁destru	-9573
▁Familia	-9574
▁Morales	-9575
▁inci	-9576
VI	-9577
uqu	-9578
▁gatos	-9579
inete	-9580
▁ensal	-9581
▁escenas	-9582
▁actualizar	-9583
▁Nor	-9584
▁00	-9585
▁adver	-9586
▁vangu	-9587
▁reduce	-9588
▁utilic	-9589
▁diseñada	-9590
▁encuentras	-9591
▁extraño	-9592
▁felices	-9593
▁marcador	-9594
▁reformas	-9595
▁Rod	-9596
tuario	-9597
ator	-9598
▁Ayer	-9599
▁verá	-9600
iaria	-9601
▁África	-9602
▁quedaron	-9603
ium	-9604
▁muchísimo	-9605
▁Sum	-9606
▁estric	-9607
▁clásica	-9608
▁vag	-9609
▁Industrial	-9610
har	-9611
▁manejar	-9612
entados	-9613
▁avanzar	-9614
▁renovación	-9615
▁generaciones	-9616
▁Instal	-9617
▁reservar	-9618
▁Industria	-9619
▁propietario	-9620
▁culpa	-9621
▁europea	-9622
lados	-9623
▁Tour	-9624
▁cien	-9625
▁apasion	-9626
▁Guardia	-9627
▁competir	-9628
▁madrugada	-9629
▁participan	-9630
▁artística	-9631
abas	-9632
▁Pok	-9633
▁parecía	-9634
ock	-9635
▁Chica	-9636
▁básicas	-9637
▁citas	-9638
▁Integr	-9639
▁desarrollando	-9640
▁cuchar	-9641
▁Ruiz	-9642
▁memor	-9643
▁registrar	-9644
▁murió	-9645
▁pierde	-9646
▁cuartos	-9647
▁necesito	-9648
▁absolu	-9649
▁Energía	-9650
▁liderazgo	-9651
▁específicos	-9652
▁MA	-9653
▁tamaños	-9654
▁mascotas	-9655
▁2013,	-9656
▁Gabriel	-9657
▁Bi	-9658
lazar	-9659
▁costes	-9660
▁tercero	-9661
idro	-9662
▁Claud	-9663
lemente	-9664
▁conflictos	-9665
▁Universitario	-9666
▁Campo	-9667
▁raza	-9668
▁pude	-9669
▁borde	-9670
▁clubes	-9671
▁emoción	-9672
▁Bea	-9673
▁Hel	-9674
▁Lan	-9675
▁titulado	-9676
▁certificación	-9677
▁Navarra	-9678
▁anticip	-9679
▁independientes	-9680
▁Moder	-9681
ometra	-9682
▁UE	-9683
▁Ví	-9684
▁chino	-9685
ERO	-9686
▁juvenil	-9687
uesa	-9688
tedral	-9689
▁Miami	-9690
rilla	-9691
abetes	-9692
cinas	-9693
icciones	-9694
ped	-9695
▁europeos	-9696
▁largas	-9697
▁líquido	-9698
tías	-9699
▁Fotos	-9700
ription	-9701
eja	-9702
▁7,	-9703
▁embaj	-9704
▁firmado	-9705
varo	-9706
íticas	-9707
▁respaldo	-9708
▁compatible	-9709
ield	-9710
▁reporta	-9711
ifi	-9712
▁Galax	-9713
▁quem	-9714
▁Laura	-9715
▁Juego	-9716
Ma	-9717
▁cuota	-9718
▁conocen	-9719
▁Excelente	-9720
▁inoc	-9721
▁cuantos	-9722
▁solidaridad	-9723
▁kilos	-9724
▁incorporación	-9725
▁evaluar	-9726
▁extrac	-9727
▁enviado	-9728
íctor	-9729
▁bella	-9730
anta	-9731
▁hablan	-9732
▁Tenerife	-9733
▁dañ	-9734
of	-9735
ría	-9736
itadas	-9737
▁adquisición	-9738
orra	-9739
▁construido	-9740
▁inoxidable	-9741
▁tendría	-9742
▁Seguir	-9743
omend	-9744
▁habló	-9745
▁sindica	-9746
▁ventanas	-9747
▁representan	-9748
▁Fecha	-9749
▁Frente	-9750
CC	-9751
▁Sky	-9752
▁escog	-9753
▁lavado	-9754
▁PA	-9755
▁hielo	-9756
▁XIX	-9757
▁parada	-9758
▁tránsito	-9759
▁ganadores	-9760
▁funcionario	-9761
▁lluvias	-9762
íces	-9763
▁recin	-9764
▁escritura	-9765
▁::	-9766
icidio	-9767
▁recogida	-9768
▁servidores	-9769
▁MP	-9770
▁Atlético	-9771
▁animación	-9772
49	-9773
iblia	-9774
▁We	-9775
▁identificación	-9776
▁Salamanca	-9777
iñ	-9778
▁CAR	-9779
▁William	-9780
ejo	-9781
▁diplom	-9782
▁explicado	-9783
▁disciplina	-9784
▁Papa	-9785
▁ingeniería	-9786
▁viajeros	-9787
▁bat	-9788
citos	-9789
▁edades	-9790
▁hambre	-9791
▁lanzar	-9792
▁sob	-9793
▁cultivo	-9794
▁corporal	-9795
▁Diciembre	-9796
usto	-9797
▁etiqueta	-9798
▁Será	-9799
▁pará	-9800
▁marcar	-9801
▁permitan	-9802
ínas	-9803
▁prin	-9804
▁labios	-9805
GR	-9806
ision	-9807
teria	-9808
▁cartera	-9809
▁residentes	-9810
▁cil	-9811
▁abrazo	-9812
▁reciben	-9813
▁traslado	-9814
▁revolucion	-9815
SL	-9816
ross	-9817
lecomunicaciones	-9818
ganos	-9819
▁poli	-9820
itora	-9821
▁char	-9822
alizados	-9823
▁silla	-9824
▁escrita	-9825
▁seleccionado	-9826
▁inyec	-9827
acha	-9828
▁Abril	-9829
▁molinos	-9830
▁referencias	-9831
▁discrim	-9832
▁alerta	-9833
▁ejecutar	-9834
iten	-9835
▁poquito	-9836
▁Pros	-9837
▁contraseña	-9838
▁Castell	-9839
▁transparente	-9840
úp	-9841
abo	-9842
▁invitación	-9843
▁trama	-9844
Ten	-9845
▁lesión	-9846
▁alimento	-9847
▁destinado	-9848
camiento	-9849
▁golpes	-9850
▁95	-9851
▁juventud	-9852
▁cuyos	-9853
▁lindo	-9854
luten	-9855
400	-9856
▁nación	-9857
ERS	-9858
▁Desc	-9859
▁delincu	-9860
▁Tiempo	-9861
▁paisajes	-9862
▁2014.	-9863
▁BB	-9864
▁sana	-9865
▁asesinato	-9866
▁grabación	-9867
▁legislación	-9868
▁traje	-9869
▁abiertas	-9870
▁deje	-9871
cripciones	-9872
▁presentará	-9873
▁fruto	-9874
▁Disney	-9875
▁lesion	-9876
▁olor	-9877
▁Víctor	-9878
▁Deporte	-9879
CR	-9880
▁abrió	-9881
▁absolutamente	-9882
izando	-9883
▁camion	-9884
▁semillas	-9885
ect	-9886
tit	-9887
▁obtenido	-9888
▁Maduro	-9889
▁congel	-9890
▁comprensión	-9891
▁arco	-9892
itivas	-9893
▁hogares	-9894
▁perfiles	-9895
▁determinado	-9896
▁Guti	-9897
▁Mancha	-9898
▁mud	-9899
▁litros	-9900
▁Aeropuerto	-9901
▁magist	-9902
▁concejal	-9903
▁famosos	-9904
▁basura	-9905
▁negros	-9906
▁reconoce	-9907
TIV	-9908
▁desesper	-9909
▁dedos	-9910
▁derrota	-9911
▁elaborar	-9912
▁alrededores	-9913
▁dulces	-9914
▁venido	-9915
▁inclusión	-9916
▁Ideal	-9917
▁cabal	-9918
▁report	-9919
▁creen	-9920
▁lanza	-9921
▁doce	-9922
▁Christ	-9923
▁aprobado	-9924
▁energética	-9925
▁Tre	-9926
▁gráficos	-9927
▁FM	-9928
▁Cocina	-9929
▁relato	-9930
ómicas	-9931
▁Human	-9932
▁Diputación	-9933
crito	-9934
▁Post	-9935
▁Ignacio	-9936
▁adaptar	-9937
▁universal	-9938
▁presupuestos	-9939
▁balón	-9940
▁Maes	-9941
uero	-9942
▁emprendedores	-9943
▁Palma	-9944
▁crimen	-9945
▁eliminación	-9946
▁Quiero	-9947
▁Mercedes	-9948
▁flexible	-9949
enciado	-9950
▁margen	-9951
▁consumidor	-9952
▁diseñar	-9953
▁consentimiento	-9954
▁cola	-9955
▁hombro	-9956
risto	-9957
▁linea	-9958
▁pollo	-9959
▁dirige	-9960
▁Ofrecemos	-9961
▁realizamos	-9962
▁músicos	-9963
ani	-9964
▁discusión	-9965
▁Valladolid	-9966
paras	-9967
▁plen	-9968
▁adolescente	-9969
▁siga	-9970
▁blogs	-9971
▁sostuvo	-9972
▁convivencia	-9973
▁escas	-9974
▁heridas	-9975
▁bolsillo	-9976
▁panorama	-9977
▁46	-9978
▁notific	-9979
▁riqueza	-9980
▁secundaria	-9981
POR	-9982
ián	-9983
gano	-9984
▁tos	-9985
▁vacío	-9986
▁pienso	-9987
ibre	-9988
▁Hombres	-9989
izó	-9990
olor	-9991
▁cargar	-9992
▁indispens	-9993
ms	-9994
▁colaborar	-9995
Car	-9996
▁Obje	-9997
▁afrontar	-9998
▁independencia	-9999
▁10,	-10000
▁UV	-10001
▁Capaci	-10002
▁degust	-10003
▁renta	-10004
▁departamentos	-10005
▁aroma	-10006
▁Marcos	-10007
istos	-10008
▁mecanismos	-10009
▁reproducción	-10010
vide	-10011
▁percib	-10012
▁devolver	-10013
:0	-10014
▁50%	-10015
▁carbono	-10016
▁sensor	-10017
▁intercambi	-10018
▁planificación	-10019
tz	-10020
▁pele	-10021
▁sacri	-10022
amora	-10023
bes	-10024
ibujos	-10025
▁matar	-10026
▁Bay	-10027
▁Env	-10028
▁tenis	-10029
▁Primer	-10030
▁danza	-10031
▁Área	-10032
▁vigilancia	-10033
▁llevando	-10034
▁Max	-10035
▁electricidad	-10036
▁9.	-10037
▁PL	-10038
▁Tipo	-10039
▁rumbo	-10040
▁sabores	-10041
▁morir	-10042
▁Alquil	-10043
▁trag	-10044
▁Estatal	-10045
▁colaboradores	-10046
▁equivoc	-10047
▁Argent	-10048
▁Parece	-10049
▁reconocida	-10050
BI	-10051
▁Iv	-10052
▁1000	-10053
cop	-10054
▁Raúl	-10055
▁bandera	-10056
▁Trituradora	-10057
32	-10058
▁hisp	-10059
tí	-10060
tela	-10061
▁mach	-10062
▁Interna	-10063
▁Cés	-10064
ótica	-10065
▁gimnasio	-10066
▁dato	-10067
▁asuntos	-10068
ecimiento	-10069
inidad	-10070
ath	-10071
▁dudes	-10072
▁metas	-10073
▁Núm	-10074
▁incorporar	-10075
ov	-10076
▁jub	-10077
▁adjud	-10078
▁Edición	-10079
▁Luz	-10080
▁Conce	-10081
▁Algo	-10082
▁paginas	-10083
▁obligación	-10084
OT	-10085
▁metá	-10086
▁señales	-10087
▁incorpora	-10088
ientemente	-10089
▁vea	-10090
mir	-10091
▁Ang	-10092
iares	-10093
▁disponemos	-10094
▁igualmente	-10095
3%	-10096
olar	-10097
▁Nar	-10098
denes	-10099
▁Grande	-10100
tible	-10101
▁sera	-10102
▁pescado	-10103
▁Corea	-10104
▁Mendo	-10105
▁botas	-10106
▁periódico	-10107
▁perjud	-10108
▁vistazo	-10109
▁mandatario	-10110
▁colegios	-10111
▁pongo	-10112
▁sirven	-10113
▁héro	-10114
ísimas	-10115
enzo	-10116
▁parro	-10117
▁desgas	-10118
▁préstamo	-10119
oledo	-10120
▁Stre	-10121
uelto	-10122
▁sentimos	-10123
▁pesca	-10124
uk	-10125
▁CL	-10126
▁onda	-10127
▁tea	-10128
▁manz	-10129
▁utilizada	-10130
▁frutos	-10131
▁paquetes	-10132
▁confirmado	-10133
aming	-10134
▁bomba	-10135
1%	-10136
▁escolares	-10137
viendo	-10138
tigu	-10139
▁Joaqu	-10140
▁recar	-10141
▁190	-10142
▁créditos	-10143
íso	-10144
▁éstos	-10145
▁Agricultura	-10146
bria	-10147
▁Nota	-10148
dita	-10149
▁Gil	-10150
inan	-10151
▁Enfer	-10152
▁occiden	-10153
NA	-10154
intendo	-10155
▁consig	-10156
▁ciudadano	-10157
uses	-10158
▁reacción	-10159
▁aceptación	-10160
▁respira	-10161
uido	-10162
▁2.0	-10163
ísica	-10164
▁coron	-10165
▁modos	-10166
▁confirmar	-10167
áz	-10168
▁mg	-10169
acruz	-10170
▁trasera	-10171
▁estadísticas	-10172
▁Record	-10173
▁largos	-10174
iod	-10175
▁físicas	-10176
iversidad	-10177
▁controles	-10178
▁Dor	-10179
▁agencias	-10180
▁pura	-10181
▁Rural	-10182
▁Cuar	-10183
▁carn	-10184
diales	-10185
▁Hon	-10186
▁riv	-10187
▁británico	-10188
▁papeles	-10189
▁implementar	-10190
▁productividad	-10191
▁directorio	-10192
▁verse	-10193
rones	-10194
▁huevo	-10195
▁tranquila	-10196
▁jer	-10197
redo	-10198
reros	-10199
▁parar	-10200
▁conocemos	-10201
char	-10202
uche	-10203
▁biblio	-10204
lón	-10205
▁oliva	-10206
▁Pueblo	-10207
▁óp	-10208
▁SER	-10209
▁xxx	-10210
▁Alonso	-10211
▁notable	-10212
▁Bolsa	-10213
▁lucir	-10214
▁Comentarios	-10215
adilla	-10216
▁distinto	-10217
▁Saludos	-10218
▁Jiménez	-10219
▁metodología	-10220
▁Ep	-10221
▁seguirá	-10222
▁eco	-10223
▁Multi	-10224
▁sufrió	-10225
▁Caja	-10226
▁(...)	-10227
▁polla	-10228
Nos	-10229
▁doy	-10230
▁64	-10231
▁precisa	-10232
▁Secretario	-10233
▁sustancias	-10234
▁kg	-10235
▁fallo	-10236
▁85	-10237
ánicos	-10238
▁Romero	-10239
▁explotación	-10240
vila	-10241
ambios	-10242
▁imaginar	-10243
▁Cualquier	-10244
88	-10245
NO	-10246
▁Mara	-10247
▁visitante	-10248
▁piz	-10249
▁acompañar	-10250
▁deterior	-10251
▁suministro	-10252
▁acumul	-10253
ép	-10254
renos	-10255
▁registros	-10256
▁Obs	-10257
▁entero	-10258
lique	-10259
▁Recursos	-10260
▁360	-10261
▁Tri	-10262
▁detectar	-10263
▁investigar	-10264
▁aliv	-10265
▁fría	-10266
▁cayó	-10267
▁Etiquetas	-10268
ave	-10269
▁Habana	-10270
▁Ofer	-10271
▁semif	-10272
▁habilidad	-10273
▁trituradoras	-10274
▁Casas	-10275
▁equipamiento	-10276
▁avenida	-10277
▁Sr	-10278
iénd	-10279
▁sonidos	-10280
adi	-10281
▁Ampl	-10282
▁more	-10283
▁Olímp	-10284
▁reina	-10285
▁espejo	-10286
dea	-10287
íncipe	-10288
▁Hy	-10289
mano	-10290
iertos	-10291
▁inaugur	-10292
zó	-10293
▁Word	-10294
▁arru	-10295
tarias	-10296
▁llamó	-10297
▁Análisis	-10298
▁Recuerda	-10299
▁columna	-10300
▁Redacción	-10301
▁suspensión	-10302
▁Plus	-10303
▁follando	-10304
▁amo	-10305
▁apunta	-10306
▁om	-10307
▁supermerc	-10308
▁perfección	-10309
teur	-10310
▁ces	-10311
tines	-10312
tural	-10313
▁hard	-10314
▁relevantes	-10315
▁trabajador	-10316
▁irre	-10317
▁Din	-10318
▁prede	-10319
▁grabar	-10320
▁Mendoza	-10321
▁detener	-10322
illar	-10323
▁masajes	-10324
▁GR	-10325
▁Cerv	-10326
▁subray	-10327
mol	-10328
▁SL	-10329
▁2012,	-10330
titudes	-10331
▁comparte	-10332
xa	-10333
ERA	-10334
▁hayas	-10335
▁encuesta	-10336
ding	-10337
▁echar	-10338
▁conveniente	-10339
▁noved	-10340
▁cortos	-10341
▁core	-10342
▁with	-10343
▁Fiesta	-10344
▁estadounidenses	-10345
▁Sha	-10346
▁descubierto	-10347
▁sacer	-10348
▁tasas	-10349
▁Construcción	-10350
▁exposiciones	-10351
▁ejecut	-10352
▁47	-10353
▁produjo	-10354
▁tratando	-10355
▁2013.	-10356
▁didác	-10357
sey	-10358
irió	-10359
▁Rich	-10360
▁frag	-10361
▁asomb	-10362
▁inund	-10363
▁Extra	-10364
▁Innovación	-10365
tifica	-10366
▁trabajamos	-10367
▁motoci	-10368
ijo	-10369
▁ámbitos	-10370
▁distingu	-10371
▁ga	-10372
▁ligera	-10373
ADOR	-10374
dó	-10375
▁Marzo	-10376
▁gracia	-10377
▁frontal	-10378
ituración	-10379
▁restauración	-10380
▁Libros	-10381
▁culmin	-10382
iviles	-10383
▁Robert	-10384
Co	-10385
iki	-10386
▁diag	-10387
▁contaminación	-10388
▁fija	-10389
▁quinta	-10390
▁excepción	-10391
46	-10392
▁Pho	-10393
Quién	-10394
▁flam	-10395
▁Intro	-10396
▁elimina	-10397
▁gráfica	-10398
▁provoca	-10399
▁Pac	-10400
tenimiento	-10401
▁compartido	-10402
▁pion	-10403
▁triste	-10404
▁Álvarez	-10405
▁disfrute	-10406
jeras	-10407
▁llevaba	-10408
▁salidas	-10409
▁regresar	-10410
▁caz	-10411
▁apete	-10412
▁rurales	-10413
▁jardines	-10414
▁cep	-10415
grados	-10416
▁Maria	-10417
▁imperme	-10418
ciÃ	-10419
▁automático	-10420
▁prima	-10421
▁manifies	-10422
▁Ves	-10423
▁reúne	-10424
▁ácido	-10425
tita	-10426
▁Fuente	-10427
▁compone	-10428
▁gigante	-10429
▁Pod	-10430
▁mediados	-10431
▁empate	-10432
▁fur	-10433
▁permitió	-10434
▁incrementar	-10435
usas	-10436
▁procesamiento	-10437
vides	-10438
▁smartphone	-10439
).-	-10440
quero	-10441
▁Canaria	-10442
▁turísticos	-10443
▁proxim	-10444
!,	-10445
▁volante	-10446
▁señalado	-10447
▁instantán	-10448
▁golf	-10449
▁humil	-10450
▁psico	-10451
▁colonia	-10452
▁UR	-10453
▁inauguración	-10454
▁asal	-10455
▁Valent	-10456
▁relevante	-10457
▁disponer	-10458
edos	-10459
▁malos	-10460
▁unir	-10461
▁Gustavo	-10462
▁Madre	-10463
▁democr	-10464
▁maravillosa	-10465
ispo	-10466
▁Igual	-10467
▁Mez	-10468
tizar	-10469
▁certamen	-10470
▁llevamos	-10471
oC	-10472
▁viviendo	-10473
▁bole	-10474
▁Cádiz	-10475
íe	-10476
▁increíbles	-10477
▁Sara	-10478
▁simult	-10479
▁espiritual	-10480
▁deberían	-10481
▁específicas	-10482
▁Champ	-10483
▁Frank	-10484
▁asegurado	-10485
eral	-10486
ernam	-10487
▁continuidad	-10488
▁intu	-10489
▁petróleo	-10490
▁Transporte	-10491
47	-10492
▁compens	-10493
▁2005	-10494
▁símbolo	-10495
▁acorde	-10496
▁desafíos	-10497
▁transparencia	-10498
andal	-10499
▁Open	-10500
▁rebel	-10501
▁salto	-10502
▁solicitudes	-10503
gena	-10504
▁avanzada	-10505
írez	-10506
▁gel	-10507
▁venezolano	-10508
▁Java	-10509
▁mail	-10510
▁descenso	-10511
pado	-10512
▁evidencia	-10513
▁Fol	-10514
idora	-10515
▁interfaz	-10516
▁Deportivo	-10517
▁sépti	-10518
▁modernos	-10519
▁empiez	-10520
▁diseñador	-10521
win	-10522
▁Boca	-10523
oya	-10524
tens	-10525
▁pelota	-10526
▁madrile	-10527
▁tramo	-10528
▁mecanismo	-10529
▁tin	-10530
▁GB	-10531
▁DVD	-10532
▁stand	-10533
▁bebida	-10534
▁presentaron	-10535
▁nuc	-10536
▁caras	-10537
▁cerra	-10538
▁inalám	-10539
▁injust	-10540
▁8,	-10541
▁Centros	-10542
kers	-10543
▁More	-10544
FE	-10545
▁Obr	-10546
direc	-10547
logos	-10548
▁Florida	-10549
▁vuestros	-10550
▁creciente	-10551
▁Parlamento	-10552
▁quinto	-10553
▁Hos	-10554
zz	-10555
▁Puebla	-10556
▁continente	-10557
▁Alfonso	-10558
▁grabado	-10559
▁Municipio	-10560
2%	-10561
izos	-10562
▁consciente	-10563
▁sorprendente	-10564
▁bordo	-10565
tega	-10566
tillos	-10567
▁capas	-10568
▁sober	-10569
▁pensamientos	-10570
.30	-10571
▁ke	-10572
▁conectado	-10573
▁empresario	-10574
tea	-10575
▁Va	-10576
▁ile	-10577
▁terapia	-10578
▁montañas	-10579
▁específica	-10580
▁tetas	-10581
▁prioridad	-10582
▁ingen	-10583
▁quedo	-10584
▁pack	-10585
▁enmar	-10586
▁Sistemas	-10587
▁moch	-10588
▁autora	-10589
▁ansiedad	-10590
▁Administra	-10591
ME	-10592
▁Ambos	-10593
/10	-10594
señ	-10595
érrez	-10596
▁consideran	-10597
gará	-10598
▁Terc	-10599
untamente	-10600
▁conmemor	-10601
▁ediciones	-10602
▁instancia	-10603
▁autorización	-10604
▁advers	-10605
ween	-10606
▁amante	-10607
▁Disponible	-10608
uelta	-10609
▁libr	-10610
▁Nintendo	-10611
▁creativo	-10612
Hay	-10613
▁acá	-10614
▁desemp	-10615
▁Top	-10616
▁denominado	-10617
▁desgra	-10618
▁apreciar	-10619
IOS	-10620
▁Sos	-10621
indic	-10622
▁cobre	-10623
▁Junto	-10624
▁insist	-10625
ector	-10626
▁Ingenier	-10627
▁buscador	-10628
mejor	-10629
▁Galaxy	-10630
▁franquicia	-10631
▁Aún	-10632
▁Vista	-10633
▁señora	-10634
▁orgullo	-10635
aluación	-10636
▁novedad	-10637
▁abst	-10638
▁portada	-10639
▁recibirá	-10640
▁urbana	-10641
▁sufrido	-10642
▁mencionar	-10643
▁bes	-10644
▁anot	-10645
▁cinemato	-10646
▁pantallas	-10647
▁vecino	-10648
▁(10	-10649
zadas	-10650
▁encuentre	-10651
9%	-10652
▁che	-10653
▁Senado	-10654
▁Ejército	-10655
▁fundador	-10656
tol	-10657
▁Sony	-10658
turación	-10659
mica	-10660
▁modificación	-10661
▁dot	-10662
▁simples	-10663
▁absoluta	-10664
▁mostrado	-10665
▁Ruta	-10666
▁Pul	-10667
▁espon	-10668
▁cocinar	-10669
▁llevaron	-10670
▁play	-10671
▁Ramírez	-10672
▁olvides	-10673
▁sujetos	-10674
▁tecnológica	-10675
▁esperaba	-10676
xo	-10677
▁compuesta	-10678
▁conocidas	-10679
▁usos	-10680
OG	-10681
idencial	-10682
▁WhatsApp	-10683
▁fues	-10684
▁pantalones	-10685
eng	-10686
allero	-10687
▁Máster	-10688
TAS	-10689
▁mensaj	-10690
▁cria	-10691
▁estupen	-10692
▁molesti	-10693
idación	-10694
▁Comercial	-10695
▁publicados	-10696
▁Anal	-10697
▁Eleg	-10698
áser	-10699
▁dup	-10700
▁dirigir	-10701
rosa	-10702
▁Out	-10703
▁Park	-10704
▁coger	-10705
▁avanzado	-10706
jecimiento	-10707
▁islas	-10708
▁aparato	-10709
▁08	-10710
dieron	-10711
▁Colección	-10712
low	-10713
▁Mallorca	-10714
▁valoración	-10715
▁localidades	-10716
fico	-10717
▁veinte	-10718
▁depósito	-10719
TRA	-10720
▁aburr	-10721
▁gerente	-10722
▁aman	-10723
▁mobil	-10724
▁desafío	-10725
▁fundación	-10726
▁aves	-10727
▁antic	-10728
ponés	-10729
fectos	-10730
▁ficha	-10731
▁Bolso	-10732
▁leyenda	-10733
▁atribu	-10734
▁históricos	-10735
▁nube	-10736
▁Libert	-10737
▁preferencias	-10738
fac	-10739
questa	-10740
far	-10741
▁juntas	-10742
▁sentimiento	-10743
erra	-10744
camos	-10745
▁temporadas	-10746
▁consideramos	-10747
▁reiter	-10748
▁proteínas	-10749
tecn	-10750
cioso	-10751
▁escribe	-10752
ínsula	-10753
▁acabados	-10754
▁encantado	-10755
yr	-10756
uenca	-10757
entaria	-10758
▁inesper	-10759
▁maduras	-10760
▁flexibilidad	-10761
▁ecos	-10762
▁vaso	-10763
▁causar	-10764
▁raíces	-10765
▁policías	-10766
▁Gl	-10767
▁Sor	-10768
▁cumplen	-10769
adar	-10770
▁cubre	-10771
▁embal	-10772
ocer	-10773
▁Gutiérrez	-10774
▁Repar	-10775
▁Disfruta	-10776
67	-10777
▁lej	-10778
▁Hugo	-10779
▁Apo	-10780
▁ilegal	-10781
iness	-10782
▁gustó	-10783
▁Niños	-10784
▁limón	-10785
▁hormig	-10786
▁App	-10787
amarca	-10788
▁tengamos	-10789
▁climático	-10790
▁habituales	-10791
▁sensaciones	-10792
digos	-10793
▁galle	-10794
▁hechas	-10795
▁Respons	-10796
▁blancos	-10797
300	-10798
▁Conferencia	-10799
▁luna	-10800
▁neuro	-10801
▁torre	-10802
▁vertical	-10803
fl	-10804
ocho	-10805
Ah	-10806
▁creemos	-10807
▁antiguas	-10808
▁desconocido	-10809
▁incluida	-10810
▁farmac	-10811
▁optimizar	-10812
▁Center	-10813
▁emisión	-10814
▁treinta	-10815
▁daba	-10816
▁inteligentes	-10817
▁incent	-10818
vie	-10819
▁amenazas	-10820
▁Otras	-10821
▁Modelo	-10822
▁Naturales	-10823
rios	-10824
▁LAS	-10825
▁china	-10826
▁deportistas	-10827
▁brazo	-10828
ié	-10829
tizado	-10830
▁reveló	-10831
▁refleja	-10832
▁especialidad	-10833
▁abon	-10834
▁futuros	-10835
▁contienen	-10836
gresos	-10837
▁relojes	-10838
▁01	-10839
▁Spa	-10840
ady	-10841
met	-10842
▁culp	-10843
▁Premios	-10844
▁Editorial	-10845
▁experimentar	-10846
▁ONU	-10847
▁Línea	-10848
▁éxitos	-10849
▁ID	-10850
▁Ov	-10851
▁edific	-10852
▁Lorenzo	-10853
▁iguales	-10854
▁mandar	-10855
▁Dia	-10856
▁Naci	-10857
▁remon	-10858
illones	-10859
▁apropi	-10860
▁integrada	-10861
▁CE	-10862
▁ambientes	-10863
▁informática	-10864
▁personalmente	-10865
ieras	-10866
▁subida	-10867
acciones	-10868
▁necesite	-10869
uega	-10870
▁convierten	-10871
bu	-10872
INA	-10873
gaz	-10874
uesos	-10875
ídas	-10876
▁malas	-10877
ASA	-10878
▁pesc	-10879
▁César	-10880
eciendo	-10881
emia	-10882
ford	-10883
tage	-10884
▁artificial	-10885
▁exige	-10886
ecretar	-10887
▁alianza	-10888
▁asiento	-10889
▁comenzaron	-10890
▁Nike	-10891
▁cron	-10892
▁farm	-10893
ímetros	-10894
▁describe	-10895
▁mama	-10896
▁explorar	-10897
Gra	-10898
▁Pay	-10899
▁hec	-10900
▁diarios	-10901
▁AV	-10902
▁anime	-10903
▁prestar	-10904
▁darte	-10905
▁impon	-10906
gué	-10907
hab	-10908
▁recre	-10909
▁Michel	-10910
▁considerable	-10911
radas	-10912
97	-10913
▁barrios	-10914
▁diputados	-10915
/11	-10916
▁paciencia	-10917
▁turística	-10918
▁conductores	-10919
▁presid	-10920
▁recinto	-10921
▁colectivos	-10922
▁Carolina	-10923
▁Sigu	-10924
▁Reina	-10925
▁devolución	-10926
▁manteniendo	-10927
▁obstá	-10928
▁Agosto	-10929
apas	-10930
acete	-10931
▁compet	-10932
▁Global	-10933
rí	-10934
▁Beb	-10935
venidos	-10936
▁reform	-10937
▁captura	-10938
▁invitado	-10939
▁ISO	-10940
6%	-10941
▁Gan	-10942
vecha	-10943
▁creó	-10944
onales	-10945
▁Publ	-10946
▁Rojo	-10947
▁contado	-10948
Mi	-10949
▁llaman	-10950
▁Avenida	-10951
▁levantar	-10952
▁camas	-10953
▁seleccionados	-10954
▁conversaciones	-10955
▁Sw	-10956
▁XXX	-10957
▁Rece	-10958
IDA	-10959
gin	-10960
▁medir	-10961
▁trist	-10962
▁elevado	-10963
▁Patrimonio	-10964
▁déci	-10965
▁patrón	-10966
▁ligeramente	-10967
▁Jug	-10968
▁Power	-10969
▁Vo	-10970
umer	-10971
▁cebolla	-10972
▁transport	-10973
▁preparados	-10974
▁bande	-10975
▁satél	-10976
▁introducción	-10977
▁CV	-10978
▁Bás	-10979
▁Pra	-10980
▁mapas	-10981
ualmente	-10982
▁bau	-10983
▁bronce	-10984
▁discre	-10985
▁renunci	-10986
▁expresar	-10987
▁definitivamente	-10988
▁Fá	-10989
▁Stu	-10990
▁sug	-10991
▁agricultura	-10992
▁seguimos	-10993
didos	-10994
▁Jornada	-10995
▁vueltas	-10996
▁superficies	-10997
claje	-10998
▁iPad	-10999
▁bares	-11000
▁foros	-11001
▁salga	-11002
▁eviden	-11003
▁Mauricio	-11004
gués	-11005
tanos	-11006
ergencias	-11007
inosa	-11008
econ	-11009
▁parlam	-11010
▁sentirse	-11011
▁pecul	-11012
▁Toledo	-11013
▁desean	-11014
▁2012.	-11015
Esta	-11016
▁cultiv	-11017
▁etiquetas	-11018
▁irregular	-11019
▁Especi	-11020
▁absoluto	-11021
▁exteriores	-11022
▁Vit	-11023
▁muscular	-11024
▁copa	-11025
▁botones	-11026
▁capítulos	-11027
mun	-11028
áut	-11029
▁sofist	-11030
▁equipada	-11031
▁vicepresidente	-11032
-10	-11033
▁tuvimos	-11034
▁enemigos	-11035
▁recibieron	-11036
iá	-11037
▁favorita	-11038
▁sensibilidad	-11039
▁Ele	-11040
▁contrar	-11041
▁Jur	-11042
▁numero	-11043
▁atractivos	-11044
▁ruso	-11045
▁temprano	-11046
▁elá	-11047
▁prevé	-11048
▁italiana	-11049
cons	-11050
ejas	-11051
▁policial	-11052
▁ofrecerle	-11053
▁módulo	-11054
▁Fron	-11055
▁permitiendo	-11056
▁americano	-11057
▁gub	-11058
usion	-11059
aunque	-11060
▁direcciones	-11061
▁Asoci	-11062
itz	-11063
Cuán	-11064
▁sentidos	-11065
▁abiertos	-11066
vió	-11067
ultores	-11068
tuvieron	-11069
▁alcanza	-11070
▁destacados	-11071
▁Punta	-11072
bos	-11073
▁anfit	-11074
▁colectiva	-11075
Sab	-11076
▁Enero	-11077
▁recordó	-11078
gran	-11079
▁XXI	-11080
geles	-11081
▁Ford	-11082
▁meteor	-11083
▁Añad	-11084
▁funcionalidad	-11085
entando	-11086
▁League	-11087
▁postal	-11088
▁Nov	-11089
▁Medina	-11090
▁obtiene	-11091
▁teclado	-11092
▁esperado	-11093
▁antigü	-11094
AA	-11095
▁reforzar	-11096
▁superviv	-11097
▁Nada	-11098
▁imagin	-11099
▁guapa	-11100
▁filtro	-11101
▁estando	-11102
▁sigo	-11103
tear	-11104
tidas	-11105
▁bend	-11106
ázquez	-11107
▁sorpresas	-11108
▁ced	-11109
▁data	-11110
▁entiende	-11111
▁Feder	-11112
onduras	-11113
▁inconven	-11114
▁Torneo	-11115
▁Sel	-11116
▁Técnica	-11117
▁43	-11118
▁Lim	-11119
▁dólar	-11120
▁vayan	-11121
▁Tit	-11122
▁term	-11123
▁actualizaciones	-11124
entada	-11125
▁diseñadores	-11126
kia	-11127
▁SU	-11128
ester	-11129
lywood	-11130
▁transcur	-11131
▁acontecimientos	-11132
▁estés	-11133
▁Entrada	-11134
▁intensa	-11135
▁estampado	-11136
▁Ec	-11137
▁Jaime	-11138
loud	-11139
▁claras	-11140
▁retirar	-11141
▁queridos	-11142
DS	-11143
oli	-11144
▁sobr	-11145
éticas	-11146
▁representar	-11147
tex	-11148
▁zo	-11149
ámites	-11150
▁anuncia	-11151
▁operadores	-11152
mej	-11153
▁Sco	-11154
▁fidel	-11155
▁Caracter	-11156
▁camisetas	-11157
▁impulso	-11158
▁vuelven	-11159
▁colabora	-11160
▁disfrutando	-11161
▁Org	-11162
▁Joaquín	-11163
▁mejorando	-11164
▁posicionamiento	-11165
erio	-11166
▁Reserva	-11167
▁Valenciana	-11168
fia	-11169
▁creador	-11170
▁revolución	-11171
loque	-11172
▁ciencias	-11173
▁FC	-11174
▁Chi	-11175
▁Hom	-11176
▁Aire	-11177
SE	-11178
uu	-11179
menes	-11180
▁Extrem	-11181
▁coj	-11182
▁quir	-11183
▁reparar	-11184
▁empresariales	-11185
visor	-11186
▁asumir	-11187
▁intérprete	-11188
uci	-11189
▁short	-11190
▁AT	-11191
▁artístico	-11192
▁colecciones	-11193
mis	-11194
▁Situ	-11195
▁pist	-11196
plan	-11197
▁monstru	-11198
▁provocar	-11199
ander	-11200
▁madrid	-11201
▁espectaculares	-11202
colas	-11203
▁Inici	-11204
▁fall	-11205
▁miel	-11206
trando	-11207
▁Febrero	-11208
▁Oriente	-11209
▁camiones	-11210
▁educativas	-11211
▁tratado	-11212
▁auténtico	-11213
▁elegancia	-11214
trico	-11215
▁autonomía	-11216
▁RES	-11217
▁activar	-11218
▁monto	-11219
iros	-11220
ION	-11221
▁King	-11222
▁dependencia	-11223
▁optar	-11224
▁Marina	-11225
ager	-11226
▁surge	-11227
San	-11228
▁formal	-11229
▁aparatos	-11230
▁episodios	-11231
▁Conv	-11232
▁oeste	-11233
▁transmit	-11234
ache	-11235
▁Ken	-11236
deos	-11237
▁emis	-11238
▁filtros	-11239
▁SA	-11240
andra	-11241
▁sexy	-11242
grama	-11243
▁motos	-11244
▁gasolina	-11245
▁simultán	-11246
ENTE	-11247
▁poeta	-11248
▁específicamente	-11249
aby	-11250
lán	-11251
▁hermosos	-11252
▁corred	-11253
htt	-11254
▁BM	-11255
▁Bach	-11256
▁pobres	-11257
▁Esperamos	-11258
▁comenzará	-11259
▁parámetros	-11260
▁2011,	-11261
▁curs	-11262
▁puta	-11263
▁variar	-11264
▁ranking	-11265
▁combinaciones	-11266
▁afectan	-11267
▁limitado	-11268
▁Vega	-11269
▁expl	-11270
▁vencer	-11271
▁sociedades	-11272
Sal	-11273
▁Kim	-11274
▁Llam	-11275
▁Imper	-11276
▁joyas	-11277
▁Paraguay	-11278
abuena	-11279
▁intim	-11280
▁bacter	-11281
▁misterio	-11282
key	-11283
▁oído	-11284
▁trucos	-11285
▁despren	-11286
▁relatos	-11287
▁cató	-11288
▁stock	-11289
▁grasas	-11290
tua	-11291
ámicas	-11292
▁Iz	-11293
▁Medel	-11294
▁jab	-11295
▁pilotos	-11296
▁Compra	-11297
▁Estadio	-11298
▁higiene	-11299
▁AG	-11300
▁Evan	-11301
▁giro	-11302
▁Concurso	-11303
▁tutorial	-11304
▁conced	-11305
▁pinta	-11306
▁inca	-11307
▁consola	-11308
▁rescate	-11309
▁reducido	-11310
fund	-11311
▁adquier	-11312
▁consumir	-11313
▁das	-11314
▁centra	-11315
▁Científ	-11316
▁pérdidas	-11317
▁(199	-11318
▁anunciar	-11319
▁desarrolló	-11320
▁modificaciones	-11321
▁vivido	-11322
▁semestre	-11323
85	-11324
▁Garan	-11325
▁reiv	-11326
▁funcionan	-11327
▁escap	-11328
▁dental	-11329
▁jajaja	-11330
▁toler	-11331
▁extender	-11332
jó	-11333
▁fantasía	-11334
▁dirigentes	-11335
ison	-11336
▁Solu	-11337
írculo	-11338
▁verte	-11339
▁clan	-11340
▁saludables	-11341
▁arbit	-11342
▁sufren	-11343
▁Primaria	-11344
▁2010,	-11345
▁pelea	-11346
▁tecnológico	-11347
▁extin	-11348
▁metál	-11349
alloween	-11350
▁Veracruz	-11351
▁Ellos	-11352
▁oficialmente	-11353
▁formada	-11354
▁curiosidad	-11355
▁”	-11356
▁frecuente	-11357
ótico	-11358
▁cong	-11359
▁Guerrero	-11360
▁académica	-11361
▁Caracas	-11362
▁registró	-11363
▁mobiliario	-11364
ficientemente	-11365
▁pinturas	-11366
▁resultar	-11367
▁pudiendo	-11368
bi	-11369
▁placas	-11370
▁desarrollan	-11371
DD	-11372
inst	-11373
▁fama	-11374
▁Clínica	-11375
▁quisiera	-11376
▁disminuir	-11377
▁Chan	-11378
▁delegación	-11379
▁personalizar	-11380
▁iban	-11381
▁minería	-11382
ze	-11383
▁recicl	-11384
▁hicimos	-11385
abell	-11386
▁empo	-11387
orcio	-11388
▁linda	-11389
▁castillo	-11390
TES	-11391
▁frecuentes	-11392
ebra	-11393
▁caza	-11394
▁vapor	-11395
▁emblem	-11396
▁predic	-11397
▁bonitas	-11398
dia	-11399
▁caballo	-11400
▁circular	-11401
▁vitaminas	-11402
▁paga	-11403
▁alfomb	-11404
▁afectar	-11405
▁oración	-11406
ólico	-11407
▁estup	-11408
critos	-11409
▁Palab	-11410
▁adhes	-11411
▁armario	-11412
▁singular	-11413
▁Proyectos	-11414
▁profesora	-11415
▁interacción	-11416
▁Dir	-11417
▁Vin	-11418
▁Marta	-11419
▁exámenes	-11420
▁St	-11421
▁Exteriores	-11422
▁Lucas	-11423
▁Planta	-11424
▁sumerg	-11425
▁protesta	-11426
▁Pat	-11427
▁quiso	-11428
▁vivimos	-11429
▁comercios	-11430
▁inex	-11431
uertos	-11432
▁prenda	-11433
▁medición	-11434
garse	-11435
▁Metal	-11436
▁sufre	-11437
amon	-11438
manes	-11439
▁anci	-11440
▁geogr	-11441
▁Labor	-11442
▁Software	-11443
▁(0	-11444
▁votar	-11445
▁descansar	-11446
mx	-11447
ata	-11448
▁Baja	-11449
▁tubo	-11450
▁vigor	-11451
▁fabricado	-11452
▁define	-11453
▁sillas	-11454
▁lee	-11455
▁Mach	-11456
góg	-11457
▁Fuerza	-11458
▁únicas	-11459
▁parques	-11460
▁obligaciones	-11461
▁sindic	-11462
ócra	-11463
▁inmun	-11464
▁Barrio	-11465
▁potenciar	-11466
▁aline	-11467
▁asesoría	-11468
for	-11469
gui	-11470
íes	-11471
▁Jen	-11472
edora	-11473
▁tomate	-11474
▁Material	-11475
cería	-11476
▁signos	-11477
▁concluyó	-11478
▁regulación	-11479
▁ricos	-11480
▁alcanzó	-11481
▁configurar	-11482
ING	-11483
ampa	-11484
▁transformar	-11485
obo	-11486
chado	-11487
▁Vent	-11488
▁fachada	-11489
iterráneo	-11490
▁once	-11491
▁Repres	-11492
▁Detal	-11493
rese	-11494
▁envía	-11495
▁diámetro	-11496
▁reconocidos	-11497
▁dejaron	-11498
BO	-11499
ink	-11500
▁trop	-11501
▁barro	-11502
▁simpl	-11503
▁Juventud	-11504
JA	-11505
ody	-11506
oto	-11507
▁hs	-11508
▁Moto	-11509
▁regla	-11510
UA	-11511
▁aula	-11512
▁continuo	-11513
▁Coruña	-11514
▁confes	-11515
▁Rodrigo	-11516
▁matrícula	-11517
▁ofens	-11518
▁monedas	-11519
▁conducta	-11520
▁químicos	-11521
▁perteneciente	-11522
▁jurídica	-11523
tag	-11524
ally	-11525
▁900	-11526
▁cuándo	-11527
▁atraves	-11528
▁disponen	-11529
▁ambientales	-11530
▁Rivera	-11531
▁entrevistas	-11532
-20	-11533
▁(6	-11534
▁li	-11535
ls	-11536
toras	-11537
▁aseguran	-11538
▁1/	-11539
▁laterales	-11540
IE	-11541
▁Ropa	-11542
uya	-11543
▁plantea	-11544
mn	-11545
▁Trip	-11546
▁liv	-11547
▁distinta	-11548
kes	-11549
▁cust	-11550
▁(5)	-11551
▁Segura	-11552
▁fiscales	-11553
▁emisiones	-11554
▁respondió	-11555
▁aur	-11556
▁Viol	-11557
▁mone	-11558
▁Agust	-11559
otas	-11560
tables	-11561
▁resultó	-11562
▁existente	-11563
▁préstamos	-11564
▁individuos	-11565
ika	-11566
ieta	-11567
▁propa	-11568
▁adulto	-11569
▁acusado	-11570
▁negociación	-11571
alos	-11572
▁kit	-11573
▁Jefe	-11574
▁google	-11575
▁curioso	-11576
▁reporte	-11577
▁favoritas	-11578
itco	-11579
eis	-11580
▁Mob	-11581
▁carg	-11582
▁Deja	-11583
▁twitter	-11584
,000	-11585
▁Pun	-11586
▁pav	-11587
emento	-11588
▁procl	-11589
▁alemana	-11590
▁diabetes	-11591
▁Xbox	-11592
▁Presu	-11593
Estamos	-11594
▁hablado	-11595
▁innovador	-11596
▁í	-11597
▁Herrera	-11598
▁intentando	-11599
▁Producción	-11600
core	-11601
quita	-11602
▁motivación	-11603
ñada	-11604
▁Rioja	-11605
▁vitamina	-11606
▁Mark	-11607
-7	-11608
uco	-11609
▁Ace	-11610
▁bis	-11611
▁Ramos	-11612
mel	-11613
uana	-11614
▁Extremadura	-11615
▁voluntarios	-11616
TOR	-11617
entó	-11618
igan	-11619
▁QUE	-11620
▁raro	-11621
▁traemos	-11622
▁seca	-11623
din	-11624
tipos	-11625
▁suspen	-11626
▁correos	-11627
▁sinté	-11628
▁Honduras	-11629
▁barb	-11630
istema	-11631
cedentes	-11632
▁comedia	-11633
▁alcanzado	-11634
▁habéis	-11635
iat	-11636
▁darán	-11637
cionario	-11638
▁Tol	-11639
andia	-11640
orden	-11641
twitter	-11642
▁generan	-11643
cate	-11644
uden	-11645
▁comis	-11646
pla	-11647
▁OR	-11648
▁semi	-11649
▁obligado	-11650
▁Compañ	-11651
▁quedará	-11652
▁Imagen	-11653
▁conlle	-11654
▁ascenso	-11655
▁ampliación	-11656
tte	-11657
▁Sac	-11658
▁mix	-11659
▁caro	-11660
▁visible	-11661
▁garantías	-11662
▁moral	-11663
▁escond	-11664
▁Producto	-11665
▁ciudadana	-11666
▁inolvidable	-11667
▁apartamentos	-11668
:5	-11669
teos	-11670
▁rin	-11671
▁creativa	-11672
▁declarado	-11673
▁700	-11674
▁cae	-11675
▁Camb	-11676
BN	-11677
HA	-11678
MO	-11679
▁láser	-11680
▁protegida	-11681
izas	-11682
▁prestación	-11683
96	-11684
eñas	-11685
▁festiv	-11686
▁talentos	-11687
▁inclus	-11688
▁Título	-11689
▁fuimos	-11690
▁gratuitos	-11691
▁tradiciones	-11692
▁Roja	-11693
▁ester	-11694
▁contando	-11695
▁diagnos	-11696
▁diseñados	-11697
sion	-11698
▁Queremos	-11699
▁progreso	-11700
800	-11701
umas	-11702
tumbre	-11703
▁Grado	-11704
▁Impres	-11705
domésticos	-11706
ede	-11707
▁lema	-11708
▁guarda	-11709
▁culturas	-11710
▁accesible	-11711
▁indígenas	-11712
ingo	-11713
▁apr	-11714
▁enfrenta	-11715
▁Bill	-11716
▁aerol	-11717
▁catalán	-11718
▁Públicas	-11719
8%	-11720
▁Cha	-11721
▁pm	-11722
▁Pese	-11723
▁Cursos	-11724
▁deseen	-11725
▁Agro	-11726
▁gala	-11727
▁preciso	-11728
ayo	-11729
éano	-11730
▁box	-11731
cidad	-11732
▁bello	-11733
▁Sé	-11734
▁llave	-11735
▁espectadores	-11736
egr	-11737
▁41	-11738
uncias	-11739
▁órganos	-11740
▁encontré	-11741
drome	-11742
▁Teléf	-11743
politana	-11744
▁Alianza	-11745
▁trituración	-11746
▁Fem	-11747
▁hectá	-11748
▁inmigrantes	-11749
▁már	-11750
▁Municipalidad	-11751
Ya	-11752
▁Cuenca	-11753
▁detenidos	-11754
▁estil	-11755
▁botella	-11756
▁universitarios	-11757
▁desee	-11758
mallera	-11759
▁Mariano	-11760
▁International	-11761
ulador	-11762
▁entiendo	-11763
▁detección	-11764
▁izquierdo	-11765
ceda	-11766
▁comienzan	-11767
▁Vers	-11768
▁mega	-11769
▁postura	-11770
▁ofrecerá	-11771
iesa	-11772
▁sano	-11773
▁hones	-11774
▁puse	-11775
▁1.000	-11776
▁crítico	-11777
▁efectivos	-11778
Res	-11779
uez	-11780
▁fina	-11781
▁Recon	-11782
izador	-11783
▁ende	-11784
▁Profesor	-11785
.:	-11786
▁mono	-11787
▁presentada	-11788
▁River	-11789
back	-11790
ritos	-11791
▁advir	-11792
▁dejes	-11793
▁instituto	-11794
▁Guarda	-11795
▁indican	-11796
▁encontraron	-11797
▁EPUB	-11798
identa	-11799
▁comenzado	-11800
▁comparten	-11801
▁Usu	-11802
▁solucion	-11803
cilla	-11804
▁vuelva	-11805
▁satisfac	-11806
urt	-11807
▁órgano	-11808
▁estaremos	-11809
▁Movimiento	-11810
▁suficientes	-11811
ENA	-11812
▁tardes	-11813
▁lograron	-11814
▁9,	-11815
▁típico	-11816
ortunadamente	-11817
tab	-11818
▁194	-11819
▁cercanas	-11820
▁Big	-11821
▁carpeta	-11822
▁módulos	-11823
▁trámites	-11824
▁conexiones	-11825
▁Pic	-11826
▁dichas	-11827
▁recip	-11828
▁poderes	-11829
▁explicación	-11830
▁Sun	-11831
▁cart	-11832
entamos	-11833
-.	-11834
átil	-11835
▁pár	-11836
▁vieja	-11837
▁modern	-11838
▁civiles	-11839
▁complejos	-11840
▁Presentación	-11841
Per	-11842
▁impec	-11843
▁inicios	-11844
oni	-11845
rául	-11846
▁logro	-11847
▁discul	-11848
▁ejército	-11849
PL	-11850
▁Islas	-11851
▁adecuados	-11852
▁prestigio	-11853
▁Rib	-11854
▁defecto	-11855
ited	-11856
ísimos	-11857
▁Zapatillas	-11858
ñoz	-11859
▁Claro	-11860
▁evita	-11861
▁apareció	-11862
▁bola	-11863
▁salario	-11864
▁polémica	-11865
▁suena	-11866
▁colombiana	-11867
gend	-11868
▁empleado	-11869
▁Cookies	-11870
▁Proces	-11871
▁aceites	-11872
▁automovil	-11873
▁ejemplares	-11874
▁sed	-11875
ulados	-11876
▁abuso	-11877
mós	-11878
▁vivos	-11879
▁cintur	-11880
▁operativos	-11881
▁femin	-11882
▁Tienda	-11883
▁certificados	-11884
.0	-11885
▁estima	-11886
▁billetes	-11887
guas	-11888
garon	-11889
illerato	-11890
▁Consulta	-11891
▁regionales	-11892
▁Franco	-11893
▁confor	-11894
▁profun	-11895
medi	-11896
▁Peque	-11897
▁09	-11898
▁Jac	-11899
▁funda	-11900
▁cuantas	-11901
▁fijo	-11902
▁llamados	-11903
vol	-11904
▁acompaña	-11905
▁piscinas	-11906
▁expresa	-11907
▁hospitales	-11908
▁pim	-11909
▁Prác	-11910
▁heridos	-11911
alim	-11912
▁irr	-11913
▁dens	-11914
▁planos	-11915
▁completos	-11916
ocal	-11917
▁bloqueo	-11918
▁escorts	-11919
▁modernas	-11920
▁CC	-11921
ígenes	-11922
▁Camino	-11923
rol	-11924
▁urgente	-11925
▁administrador	-11926
▁Hermos	-11927
▁reconoció	-11928
▁villa	-11929
▁dobles	-11930
▁realizarán	-11931
7%	-11932
fice	-11933
incl	-11934
▁Sector	-11935
▁traigo	-11936
▁consigo	-11937
▁acompañada	-11938
▁baloncesto	-11939
▁transición	-11940
▁posiblemente	-11941
yl	-11942
4%	-11943
▁uñas	-11944
▁cadenas	-11945
▁dirigente	-11946
▁dedicación	-11947
fono	-11948
▁jardin	-11949
▁dueños	-11950
▁órdenes	-11951
▁fotógrafo	-11952
▁procedentes	-11953
taro	-11954
vena	-11955
▁notar	-11956
▁arries	-11957
▁aportan	-11958
▁carreteras	-11959
▁Posteriormente	-11960
idi	-11961
▁Compe	-11962
▁Embaj	-11963
▁revela	-11964
▁alb	-11965
▁Total	-11966
▁cura	-11967
▁Colec	-11968
▁preocupar	-11969
▁Categorías	-11970
venta	-11971
▁ignor	-11972
▁cantar	-11973
▁extraordinaria	-11974
▁alej	-11975
▁detención	-11976
▁neumáticos	-11977
▁USA	-11978
▁abordar	-11979
▁envíos	-11980
▁rumores	-11981
▁valorar	-11982
▁apuestas	-11983
▁Elena	-11984
▁Legisla	-11985
tres	-11986
Cuando	-11987
▁canta	-11988
▁blancas	-11989
▁inflación	-11990
▁Roy	-11991
▁ileg	-11992
▁valle	-11993
▁sienten	-11994
▁sustitución	-11995
▁plus	-11996
▁brillan	-11997
iador	-11998
▁reparto	-11999
▁conforman	-12000
▁Carn	-12001
▁irá	-12002
▁despertar	-12003
▁mÃ	-12004
▁compres	-12005
▁Católica	-12006
▁multimedia	-12007
▁polar	-12008
▁Informe	-12009
▁Mexicana	-12010
▁abandonar	-12011
▁descubrimiento	-12012
idado	-12013
▁Burgos	-12014
▁vegetales	-12015
hía	-12016
▁acabo	-12017
▁capit	-12018
▁lento	-12019
▁previs	-12020
▁venden	-12021
▁escucha	-12022
▁Categoría	-12023
▁calientes	-12024
▁sep	-12025
▁lago	-12026
▁rapidez	-12027
▁financieras	-12028
guera	-12029
▁maquina	-12030
omi	-12031
▁Sk	-12032
▁localización	-12033
▁gubernam	-12034
▁fantástico	-12035
DI	-12036
ícolas	-12037
ucción	-12038
▁pondrá	-12039
▁Álvaro	-12040
▁ms	-12041
▁decenas	-12042
▁secciones	-12043
icular	-12044
▁incendio	-12045
▁nutrientes	-12046
▁aparcamiento	-12047
TAN	-12048
▁presidencial	-12049
uge	-12050
ajar	-12051
ocar	-12052
▁volverá	-12053
▁vínculo	-12054
ítimo	-12055
▁Iden	-12056
▁acabó	-12057
▁sienta	-12058
▁Distrib	-12059
▁Marcelo	-12060
seguridad	-12061
asión	-12062
▁rebo	-12063
▁Particip	-12064
▁Conoci	-12065
hh	-12066
▁Solici	-12067
▁itiner	-12068
▁ganancias	-12069
▁indispensable	-12070
eek	-12071
omen	-12072
uri	-12073
▁Lam	-12074
▁alo	-12075
▁ber	-12076
▁antio	-12077
▁individuo	-12078
Gu	-12079
anim	-12080
▁Vasco	-12081
▁Hollywood	-12082
▁Noche	-12083
leos	-12084
▁acre	-12085
▁Personas	-12086
▁costumbre	-12087
▁maravilla	-12088
hal	-12089
▁Marca	-12090
▁Messi	-12091
▁trámite	-12092
dibujos	-12093
▁Result	-12094
▁CI	-12095
▁dedo	-12096
▁Estrel	-12097
▁proceder	-12098
▁Estudiantes	-12099
▁rayos	-12100
▁Cuerpo	-12101
▁Penal	-12102
▁realizarse	-12103
ándola	-12104
▁generando	-12105
▁Arro	-12106
▁novelas	-12107
▁sencillos	-12108
▁fores	-12109
▁cintura	-12110
TRO	-12111
▁alza	-12112
horabuena	-12113
▁Muñoz	-12114
▁Pilar	-12115
▁alumnado	-12116
▁Arquitectura	-12117
▁negociaciones	-12118
▁Full	-12119
iense	-12120
▁Suiza	-12121
▁Alfredo	-12122
▁conjunta	-12123
▁HP	-12124
▁10%	-12125
illado	-12126
▁cardio	-12127
▁enemigo	-12128
▁afectadas	-12129
▁cualidades	-12130
▁requerimientos	-12131
gico	-12132
▁Oax	-12133
ENCIA	-12134
▁Final	-12135
31	-12136
▁Cuatro	-12137
▁analiza	-12138
real	-12139
▁fle	-12140
▁Jose	-12141
▁balcón	-12142
etida	-12143
▁Solid	-12144
▁Tamaño	-12145
▁terrible	-12146
▁PAR	-12147
▁basta	-12148
▁entregó	-12149
▁buscamos	-12150
▁Int	-12151
▁demon	-12152
▁comarca	-12153
▁Actividades	-12154
▁presidencia	-12155
▁debo	-12156
▁SEO	-12157
▁protege	-12158
▁pertenecen	-12159
▁Kir	-12160
▁conscientes	-12161
rs	-12162
organ	-12163
▁galletas	-12164
▁Jal	-12165
▁Tech	-12166
tuoso	-12167
▁Obras	-12168
▁Peter	-12169
▁ferro	-12170
itch	-12171
rias	-12172
▁despacho	-12173
urb	-12174
▁Almería	-12175
board	-12176
▁Mini	-12177
▁stre	-12178
▁hacerle	-12179
elec	-12180
▁inmueble	-12181
ush	-12182
ijas	-12183
chool	-12184
▁2004	-12185
▁semej	-12186
▁otorga	-12187
▁japonés	-12188
AV	-12189
▁postre	-12190
▁suyo	-12191
ons	-12192
Como	-12193
▁observa	-12194
▁sugerencias	-12195
Pero	-12196
▁hem	-12197
▁sensible	-12198
▁cono	-12199
porada	-12200
▁fundada	-12201
▁conclusión	-12202
Bar	-12203
▁Leo	-12204
▁Mens	-12205
rump	-12206
álogo	-12207
▁march	-12208
▁fresca	-12209
▁papa	-12210
▁Green	-12211
▁evitando	-12212
▁compromisos	-12213
vido	-12214
▁telefonía	-12215
▁etiquetada	-12216
ocos	-12217
▁armonía	-12218
▁mostrando	-12219
▁Í	-12220
▁exitosa	-12221
▁Consejería	-12222
cómo	-12223
▁infección	-12224
▁Ayuda	-12225
▁Suárez	-12226
▁andalu	-12227
▁Comprar	-12228
▁religión	-12229
zco	-12230
▁Lec	-12231
▁depender	-12232
▁Macri	-12233
▁habia	-12234
▁sabido	-12235
clusiones	-12236
▁atmós	-12237
▁Nombre	-12238
▁mantenerse	-12239
600	-12240
aster	-12241
▁anuales	-12242
▁empleos	-12243
▁Simplemente	-12244
▁OS	-12245
▁crean	-12246
▁quince	-12247
▁mascota	-12248
▁cuánto	-12249
▁sitúa	-12250
▁extensa	-12251
▁Diputados	-12252
▁Psicología	-12253
▁jamón	-12254
▁acogedor	-12255
▁chaqueta	-12256
▁Bienvenido	-12257
▁registrados	-12258
▁Period	-12259
▁Espacio	-12260
▁Opciones	-12261
▁hermosas	-12262
▁Boy	-12263
ificada	-12264
▁delicioso	-12265
▁fuese	-12266
▁auténtica	-12267
▁prefieres	-12268
▁description	-12269
▁tecnológicos	-12270
uga	-12271
unos	-12272
▁suman	-12273
olfo	-12274
▁atrav	-12275
▁paneles	-12276
▁Camis	-12277
▁suela	-12278
▁esposo	-12279
▁componente	-12280
▁retom	-12281
▁Negocios	-12282
▁ayudarán	-12283
Pre	-12284
▁pira	-12285
▁toman	-12286
▁relleno	-12287
▁charlas	-12288
▁frances	-12289
▁poseen	-12290
▁Física	-12291
▁códigos	-12292
unya	-12293
▁COL	-12294
▁viva	-12295
▁detallada	-12296
blog	-12297
▁teór	-12298
▁puertos	-12299
▁operador	-12300
▁indicadores	-12301
rer	-12302
▁GPS	-12303
▁convirti	-12304
▁energético	-12305
▁because	-12306
▁directivos	-12307
ezcan	-12308
▁reen	-12309
▁eléctricas	-12310
▁ml	-12311
▁ára	-12312
▁lucro	-12313
▁mueve	-12314
▁vivió	-12315
▁cobrar	-12316
▁determinada	-12317
▁ayuntamiento	-12318
óx	-12319
▁49	-12320
▁andar	-12321
▁Ke	-12322
-200	-12323
iras	-12324
▁Mora	-12325
▁aprendido	-12326
rie	-12327
▁Archivo	-12328
▁Tag	-12329
▁2020	-12330
▁jajaj	-12331
▁junta	-12332
▁ordenadores	-12333
▁INF	-12334
tañas	-12335
▁Reglamento	-12336
▁comunicarse	-12337
▁aterr	-12338
▁peculiar	-12339
▁coinciden	-12340
stem	-12341
tooth	-12342
▁tabl	-12343
▁masculino	-12344
irman	-12345
▁ensayos	-12346
▁mirando	-12347
▁Jornadas	-12348
▁Bara	-12349
▁delantera	-12350
▁ME	-12351
video	-12352
▁reno	-12353
ónicos	-12354
▁impro	-12355
torales	-12356
▁demandas	-12357
▁preparando	-12358
▁reduc	-12359
▁Vargas	-12360
▁acompañados	-12361
▁Abogados	-12362
▁Escr	-12363
▁Poco	-12364
▁redac	-12365
▁demues	-12366
▁admir	-12367
iko	-12368
▁poderoso	-12369
▁perfectas	-12370
Ver	-12371
turb	-12372
▁energías	-12373
▁evolucion	-12374
ubo	-12375
flix	-12376
▁engan	-12377
▁bosques	-12378
▁solicita	-12379
▁equivalente	-12380
Man	-12381
dest	-12382
▁gén	-12383
trica	-12384
éctor	-12385
▁debía	-12386
▁Muebles	-12387
▁bloques	-12388
ANA	-12389
▁camión	-12390
▁arranque	-12391
▁gigantes	-12392
▁podríamos	-12393
uan	-12394
psis	-12395
iestas	-12396
▁Judicial	-12397
▁limitada	-12398
▁Cartagena	-12399
▁brasileño	-12400
▁universitaria	-12401
▁Hogar	-12402
▁decreto	-12403
▁Amar	-12404
▁Mont	-12405
lamos	-12406
▁Audio	-12407
▁cables	-12408
▁acú	-12409
▁ponga	-12410
▁supera	-12411
▁estacionamiento	-12412
▁20%	-12413
▁envas	-12414
▁Grandes	-12415
▁excepto	-12416
▁trascen	-12417
▁músculos	-12418
▁concretamente	-12419
▁Canta	-12420
▁Acceso	-12421
▁persegu	-12422
▁mantequilla	-12423
ñal	-12424
uchas	-12425
▁manchas	-12426
▁opera	-12427
▁aprobó	-12428
▁Hacer	-12429
▁ascen	-12430
▁actualizado	-12431
get	-12432
▁Reb	-12433
▁espectáculos	-12434
▁textil	-12435
▁generado	-12436
▁arquitectón	-12437
▁audiovisual	-12438
▁rentabilidad	-12439
▁separado	-12440
▁garaje	-12441
▁habido	-12442
▁marrón	-12443
▁positivos	-12444
dios	-12445
achos	-12446
▁cord	-12447
▁manej	-12448
▁cotidiana	-12449
▁vengan	-12450
▁rivales	-12451
▁diariamente	-12452
▁entró	-12453
▁mediev	-12454
▁escritos	-12455
sex	-12456
▁Bot	-12457
▁Guad	-12458
▁baterías	-12459
▁motocicle	-12460
▁Wa	-12461
leto	-12462
éricas	-12463
▁Music	-12464
▁compa	-12465
▁choque	-12466
▁editar	-12467
▁negras	-12468
alizamos	-12469
▁vendido	-12470
▁transfer	-12471
▁Informática	-12472
dias	-12473
▁Day	-12474
▁West	-12475
▁terapéut	-12476
▁destinados	-12477
▁gole	-12478
▁rodea	-12479
▁tratan	-12480
▁Coordin	-12481
▁nutrición	-12482
▁Avis	-12483
▁cierra	-12484
▁visibilidad	-12485
igar	-12486
▁extremadamente	-12487
chos	-12488
▁Aten	-12489
▁durabilidad	-12490
▁confirmación	-12491
usk	-12492
ilado	-12493
queros	-12494
eamente	-12495
▁anillo	-12496
▁alojamientos	-12497
▁adaptarse	-12498
tone	-12499
▁Supremo	-12500
ultos	-12501
▁reino	-12502
▁Página	-12503
sor	-12504
▁CF	-12505
▁adv	-12506
imento	-12507
▁actúa	-12508
▁pasamos	-12509
▁cercanos	-12510
▁desapareci	-12511
ZA	-12512
minas	-12513
▁Teresa	-12514
▁terrenos	-12515
▁coleccion	-12516
▁tax	-12517
▁aclarar	-12518
▁separación	-12519
NI	-12520
bamos	-12521
▁Import	-12522
▁tram	-12523
▁saludos	-12524
▁hectáreas	-12525
CL	-12526
▁tira	-12527
▁expuls	-12528
▁difundir	-12529
▁japonesa	-12530
▁posesión	-12531
▁signific	-12532
ENTA	-12533
▁entornos	-12534
▁combinado	-12535
nar	-12536
rue	-12537
unidad	-12538
▁piden	-12539
▁empiezan	-12540
▁proporcionan	-12541
Tra	-12542
▁mantuvo	-12543
▁mezclar	-12544
▁Disponemos	-12545
▁arres	-12546
ualidad	-12547
▁enormes	-12548
▁negativo	-12549
▁Sl	-12550
ómicos	-12551
▁enseña	-12552
Ser	-12553
ximo	-12554
uyente	-12555
▁interv	-12556
▁bil	-12557
▁visualizar	-12558
uters	-12559
▁coco	-12560
▁Honor	-12561
▁volar	-12562
fi	-12563
▁Quin	-12564
▁star	-12565
▁Palmas	-12566
▁tablet	-12567
tienda	-12568
ticiones	-12569
ométr	-12570
▁embarc	-12571
▁banc	-12572
▁hijas	-12573
▁éstas	-12574
▁ensayo	-12575
▁desempeñ	-12576
▁inversores	-12577
▁Marc	-12578
▁guías	-12579
ek	-12580
▁dirigidos	-12581
ITA	-12582
▁delicios	-12583
ívar	-12584
▁verás	-12585
▁Nuestras	-12586
▁Electoral	-12587
▁fronteras	-12588
▁Mec	-12589
elli	-12590
▁Alo	-12591
▁EUR	-12592
aragua	-12593
▁ocasion	-12594
▁Cár	-12595
▁Mediante	-12596
▁campes	-12597
▁cerrados	-12598
▁variedades	-12599
lom	-12600
ders	-12601
▁ang	-12602
▁cabec	-12603
▁sabéis	-12604
▁ida	-12605
▁Monter	-12606
▁coloca	-12607
▁artesan	-12608
▁personalizados	-12609
óst	-12610
▁pasaron	-12611
quera	-12612
ashion	-12613
Par	-12614
CIAS	-12615
ville	-12616
▁Utilizamos	-12617
▁cristianos	-12618
tén	-12619
▁pareció	-12620
▁Ministro	-12621
▁contempla	-12622
▁multiplic	-12623
42	-12624
IFA	-12625
astre	-12626
▁asientos	-12627
▁obtenidos	-12628
▁dispuestos	-12629
▁USD	-12630
▁odio	-12631
▁podían	-12632
▁precip	-12633
inares	-12634
ologia	-12635
▁frust	-12636
▁Recomend	-12637
▁cuyas	-12638
▁tribunal	-12639
▁variables	-12640
BRE	-12641
onado	-12642
▁Héctor	-12643
▁robots	-12644
▁diarias	-12645
▁LE	-12646
▁read	-12647
▁cerró	-12648
▁lleve	-12649
▁atraer	-12650
▁externos	-12651
chi	-12652
▁chef	-12653
▁utilizamos	-12654
queta	-12655
▁Democ	-12656
▁calma	-12657
▁suelos	-12658
▁Rog	-12659
▁verla	-12660
▁Descarga	-12661
▁incidencia	-12662
zi	-12663
▁Micro	-12664
istente	-12665
▁52	-12666
▁cuotas	-12667
▁listos	-12668
▁celulares	-12669
▁desfile	-12670
▁considerada	-12671
▁ajo	-12672
▁chal	-12673
▁Medellín	-12674
orros	-12675
▁ofreció	-12676
ids	-12677
▁tib	-12678
▁Conoce	-12679
▁emprendimiento	-12680
alia	-12681
apar	-12682
▁unido	-12683
▁naciones	-12684
▁patrones	-12685
▁Tok	-12686
▁regen	-12687
▁provis	-12688
▁indicar	-12689
▁decidieron	-12690
▁videoc	-12691
▁ayudarle	-12692
▁rincón	-12693
▁Carrera	-12694
segú	-12695
▁Chá	-12696
▁Fig	-12697
▁realice	-12698
▁binarias	-12699
▁cambiando	-12700
▁afición	-12701
▁Estación	-12702
▁desarrolladores	-12703
▁rot	-12704
orías	-12705
tumbres	-12706
▁emitir	-12707
▁gravedad	-12708
▁lente	-12709
▁Revolución	-12710
▁procesador	-12711
IÓN	-12712
idia	-12713
tena	-12714
▁casino	-12715
▁desgaste	-12716
▁vigencia	-12717
▁bolsillos	-12718
▁depresión	-12719
▁venezolanos	-12720
▁suficientemente	-12721
▁abuela	-12722
▁mágico	-12723
artén	-12724
entre	-12725
▁beber	-12726
▁plana	-12727
▁sobrevivir	-12728
AE	-12729
telería	-12730
▁saldrá	-12731
▁parad	-12732
▁cubano	-12733
bs	-12734
▁colocación	-12735
▁medias	-12736
▁condena	-12737
vado	-12738
▁Ríos	-12739
▁besos	-12740
▁llamo	-12741
cismo	-12742
▁mecánica	-12743
▁derivados	-12744
▁victorias	-12745
amba	-12746
oreste	-12747
▁Molino	-12748
▁Street	-12749
▁comprado	-12750
▁criterio	-12751
TIC	-12752
▁pí	-12753
uerte	-12754
▁aires	-12755
▁calcul	-12756
▁serían	-12757
eu	-12758
▁Phil	-12759
▁apell	-12760
óf	-12761
▁testigos	-12762
▁votación	-12763
▁argentinos	-12764
esidad	-12765
▁suaves	-12766
▁iniciado	-12767
.5	-12768
76	-12769
▁72	-12770
▁Már	-12771
erica	-12772
▁basados	-12773
▁componen	-12774
▁aprovechando	-12775
▁ple	-12776
▁sar	-12777
embra	-12778
▁Barb	-12779
▁muro	-12780
▁crece	-12781
▁Fuentes	-12782
remo	-12783
▁XVI	-12784
▁Empren	-12785
▁mangas	-12786
érida	-12787
▁vuestras	-12788
▁logística	-12789
▁complementar	-12790
▁entrenamientos	-12791
▁IVA	-12792
▁sta	-12793
món	-12794
▁Seguros	-12795
▁DI	-12796
▁ahi	-12797
fónica	-12798
▁llenar	-12799
▁músico	-12800
▁camar	-12801
▁viejos	-12802
formación	-12803
▁comisiones	-12804
▁Ado	-12805
▁prol	-12806
▁recal	-12807
▁sinies	-12808
▁feder	-12809
▁solicitado	-12810
unt	-12811
▁espl	-12812
uyeron	-12813
▁informaciones	-12814
MI	-12815
set	-12816
▁Bri	-12817
ingos	-12818
▁CU	-12819
entamente	-12820
▁milag	-12821
▁telefónica	-12822
▁Aran	-12823
▁ubica	-12824
▁tablas	-12825
▁mediodía	-12826
mus	-12827
▁Viernes	-12828
▁desarrollada	-12829
▁mide	-12830
▁Prensa	-12831
▁coordinador	-12832
▁Huelva	-12833
▁Libertad	-12834
fra	-12835
▁mío	-12836
▁calorías	-12837
enza	-12838
▁2011.	-12839
▁Carre	-12840
▁tesis	-12841
▁autent	-12842
▁rechazo	-12843
▁Alquiler	-12844
▁británica	-12845
▁gramos	-12846
▁vieron	-12847
▁ecuator	-12848
▁ganadora	-12849
▁luminosidad	-12850
▁2003	-12851
▁animados	-12852
▁utilizadas	-12853
Col	-12854
ream	-12855
▁Joven	-12856
▁cen	-12857
éndez	-12858
▁Cambi	-12859
▁Netflix	-12860
▁creadores	-12861
▁sencillas	-12862
▁Nutr	-12863
▁integrar	-12864
▁fases	-12865
▁recrea	-12866
▁hormigón	-12867
▁encargada	-12868
▁vanguardia	-12869
▁actualizada	-12870
acán	-12871
▁Sección	-12872
▁convencional	-12873
▁contun	-12874
▁bancaria	-12875
▁respectivos	-12876
▁PU	-12877
▁pensamos	-12878
▁ampli	-12879
▁Número	-12880
▁internos	-12881
▁encontrarse	-12882
sea	-12883
▁noso	-12884
▁sartén	-12885
ternidad	-12886
▁Fotografía	-12887
▁Jean	-12888
▁ofrez	-12889
▁Dani	-12890
▁Fire	-12891
▁núcleo	-12892
▁normales	-12893
▁exigencias	-12894
ertid	-12895
Can	-12896
▁orto	-12897
▁fueran	-12898
▁prolon	-12899
▁cañ	-12900
▁futbolista	-12901
▁Oaxaca	-12902
▁espuma	-12903
▁12,	-12904
▁Relo	-12905
élgica	-12906
▁desmon	-12907
▁Vestido	-12908
▁encarga	-12909
▁Directiva	-12910
▁denuncias	-12911
▁consecutivo	-12912
▁TOD	-12913
▁1:	-12914
▁56	-12915
▁Jor	-12916
▁sangu	-12917
▁migrantes	-12918
clo	-12919
clas	-12920
ierre	-12921
istado	-12922
▁Tarje	-12923
▁event	-12924
▁Tienes	-12925
▁particularmente	-12926
▁CEO	-12927
trada	-12928
▁apla	-12929
▁lici	-12930
▁sanciones	-12931
egos	-12932
▁Cop	-12933
jun	-12934
moh	-12935
now	-12936
▁abar	-12937
▁fort	-12938
estría	-12939
cú	-12940
ARIO	-12941
úmenes	-12942
▁Chicas	-12943
▁retorno	-12944
▁mantenido	-12945
▁Manual	-12946
▁renovar	-12947
▁solitario	-12948
▁medicamento	-12949
▁Sabemos	-12950
hum	-12951
▁George	-12952
▁legend	-12953
▁mortal	-12954
▁vocación	-12955
▁investigador	-12956
cuenta	-12957
dadura	-12958
▁Buena	-12959
íneas	-12960
▁adel	-12961
▁jurídico	-12962
▁financiamiento	-12963
▁suspend	-12964
▁contempl	-12965
muy	-12966
▁Li	-12967
deci	-12968
ometraje	-12969
▁cremallera	-12970
▁mencionado	-12971
▁hu	-12972
ecos	-12973
heim	-12974
▁Pacífico	-12975
▁clasificados	-12976
▁Sáb	-12977
▁Toy	-12978
▁gab	-12979
gmail	-12980
produc	-12981
▁colch	-12982
▁trasero	-12983
▁Movistar	-12984
▁protocolo	-12985
▁Grecia	-12986
▁Albacete	-12987
uchos	-12988
▁Escrib	-12989
▁dolores	-12990
▁afectado	-12991
▁Mill	-12992
tadora	-12993
▁Indic	-12994
▁Portal	-12995
▁Prostitu	-12996
▁contraste	-12997
Mo	-12998
▁elegantes	-12999
▁presentarse	-13000
▁alegre	-13001
▁Ko	-13002
▁empu	-13003
▁Estad	-13004
▁Silva	-13005
ther	-13006
▁disciplinas	-13007
igor	-13008
▁trastornos	-13009
▁dorado	-13010
▁Program	-13011
▁Tampoco	-13012
▁exclusivos	-13013
▁conservar	-13014
▁destrucción	-13015
▁velocidades	-13016
▁huella	-13017
▁CAM	-13018
landa	-13019
▁corredores	-13020
▁gros	-13021
▁prece	-13022
▁Promoción	-13023
▁autobuses	-13024
árs	-13025
elia	-13026
timas	-13027
▁agric	-13028
▁Junior	-13029
▁favorecer	-13030
▁informacion	-13031
▁Lleg	-13032
▁hallaz	-13033
▁externo	-13034
▁obtención	-13035
▁liberación	-13036
▁¡¡	-13037
▁Mem	-13038
▁ais	-13039
▁siglas	-13040
▁falleció	-13041
▁negativa	-13042
▁segmento	-13043
▁insta	-13044
oble	-13045
uter	-13046
▁hamb	-13047
▁logrando	-13048
▁Iván	-13049
▁operar	-13050
Hola	-13051
▁sobresal	-13052
▁acompañamiento	-13053
▁Obama	-13054
▁incertid	-13055
inó	-13056
iete	-13057
▁dices	-13058
▁templo	-13059
▁Presidencia	-13060
▁determinados	-13061
Bo	-13062
▁pico	-13063
▁tinta	-13064
▁haremos	-13065
▁incidente	-13066
▁interpretar	-13067
▁grem	-13068
▁jugó	-13069
▁Acu	-13070
▁cálculo	-13071
▁existir	-13072
Pa	-13073
▁Occiden	-13074
▁Cond	-13075
▁diga	-13076
▁finca	-13077
▁oscura	-13078
▁estudian	-13079
▁necesites	-13080
usura	-13081
▁señalar	-13082
▁Catalunya	-13083
▁Halloween	-13084
▁artesanal	-13085
▁costumbres	-13086
▁PV	-13087
▁Jam	-13088
opera	-13089
▁lesb	-13090
▁Berlín	-13091
▁Vivienda	-13092
▁orígenes	-13093
▁sobretodo	-13094
▁Conten	-13095
▁aconsej	-13096
JO	-13097
▁ov	-13098
jidad	-13099
▁plac	-13100
▁bandeja	-13101
▁pudieran	-13102
▁are	-13103
alidades	-13104
rop	-13105
émon	-13106
▁Store	-13107
eran	-13108
▁logros	-13109
ervatorio	-13110
▁contemporáneo	-13111
amina	-13112
▁Texas	-13113
▁desierto	-13114
rales	-13115
▁espan	-13116
▁ord	-13117
▁tatu	-13118
Bus	-13119
▁comunica	-13120
cemos	-13121
▁futuras	-13122
mor	-13123
▁Cho	-13124
uyentes	-13125
▁bonitos	-13126
▁Suc	-13127
▁ríos	-13128
▁chileno	-13129
▁extracción	-13130
▁entera	-13131
▁química	-13132
▁completas	-13133
▁Lab	-13134
▁migra	-13135
▁Pregun	-13136
▁rápidos	-13137
▁relevancia	-13138
▁Bale	-13139
▁Harry	-13140
▁Redes	-13141
tensión	-13142
▁petrol	-13143
▁directores	-13144
▁facturación	-13145
▁Carr	-13146
▁percepción	-13147
“,	-13148
▁respetar	-13149
▁poblaciones	-13150
terno	-13151
quetas	-13152
▁expos	-13153
▁Labora	-13154
▁comentado	-13155
Leer	-13156
ficit	-13157
▁medici	-13158
▁disminución	-13159
▁Fom	-13160
▁Josep	-13161
▁esquí	-13162
▁Fiestas	-13163
▁universitario	-13164
dam	-13165
▁lentes	-13166
▁supervis	-13167
ildo	-13168
rido	-13169
▁roca	-13170
▁tard	-13171
▁hacerte	-13172
▁atmósfera	-13173
idar	-13174
▁apps	-13175
▁asociado	-13176
▁densidad	-13177
▁Están	-13178
▁fallecido	-13179
▁06	-13180
▁Parte	-13181
▁canto	-13182
▁ciclismo	-13183
▁Prevención	-13184
▁mate	-13185
▁quedando	-13186
ADOS	-13187
taliz	-13188
▁abus	-13189
▁Juárez	-13190
▁regresa	-13191
▁potenciales	-13192
▁escu	-13193
▁enfri	-13194
▁Jardín	-13195
▁tratados	-13196
itable	-13197
▁hueco	-13198
▁tarta	-13199
▁pusieron	-13200
fan	-13201
▁Spe	-13202
▁tuyo	-13203
▁oficio	-13204
PC	-13205
lace	-13206
▁Aqu	-13207
▁sombras	-13208
atar	-13209
▁dim	-13210
▁narco	-13211
▁Enferm	-13212
▁compac	-13213
▁hidrául	-13214
▁sustent	-13215
itará	-13216
ímenes	-13217
▁melod	-13218
▁Ortega	-13219
▁disfra	-13220
▁entregado	-13221
87	-13222
ku	-13223
▁Fra	-13224
▁crey	-13225
▁ultimo	-13226
▁cancelación	-13227
▁establecidos	-13228
▁Atlán	-13229
▁Puente	-13230
▁centrales	-13231
PO	-13232
▁copias	-13233
▁facial	-13234
▁físicos	-13235
▁Pascu	-13236
▁Integral	-13237
▁aguan	-13238
mamente	-13239
▁equipado	-13240
ily	-13241
▁Sitio	-13242
▁ministra	-13243
ampl	-13244
tona	-13245
tienden	-13246
▁calificación	-13247
▁Biblia	-13248
▁recomendado	-13249
mann	-13250
utado	-13251
▁News	-13252
▁Intelig	-13253
▁antigüedad	-13254
▁Gri	-13255
▁inflam	-13256
zando	-13257
idis	-13258
▁adher	-13259
▁dinam	-13260
▁marcó	-13261
▁atractiva	-13262
▁profesionalidad	-13263
▁Eu	-13264
idge	-13265
▁hagas	-13266
▁Regist	-13267
andante	-13268
puestamente	-13269
rando	-13270
▁cere	-13271
▁procur	-13272
▁externa	-13273
▁espacial	-13274
▁asistente	-13275
▁expresiones	-13276
▁Are	-13277
cidas	-13278
▁Temp	-13279
▁extraña	-13280
▁suscrib	-13281
▁cubiertas	-13282
▁prácticos	-13283
▁identificado	-13284
gio	-13285
less	-13286
▁tim	-13287
▁Aquel	-13288
▁cortas	-13289
▁maltra	-13290
▁teníamos	-13291
▁admit	-13292
▁cerrada	-13293
▁manzana	-13294
▁temáticas	-13295
viar	-13296
▁Rojas	-13297
BLE	-13298
▁perpe	-13299
▁Chávez	-13300
▁cocinas	-13301
▁gem	-13302
▁acogida	-13303
▁haberse	-13304
▁académicos	-13305
▁PER	-13306
éricos	-13307
▁museos	-13308
▁pieles	-13309
▁variable	-13310
▁emprender	-13311
▁automóviles	-13312
▁celebraciones	-13313
ellos	-13314
▁cartón	-13315
umos	-13316
cando	-13317
édito	-13318
▁patas	-13319
embol	-13320
▁guion	-13321
▁juegan	-13322
▁rusa	-13323
▁rubia	-13324
▁promueve	-13325
▁republic	-13326
▁desaparición	-13327
aaaa	-13328
▁rojos	-13329
▁extraordinario	-13330
jala	-13331
mith	-13332
iebre	-13333
▁refriger	-13334
▁Comb	-13335
▁confirma	-13336
▁testimonio	-13337
▁constituyen	-13338
▁cum	-13339
▁envió	-13340
▁despli	-13341
▁directiva	-13342
▁DC	-13343
▁antioxid	-13344
▁Universal	-13345
▁temor	-13346
▁afuera	-13347
▁consideró	-13348
ásico	-13349
▁ajustes	-13350
▁Patricia	-13351
▁rincones	-13352
LC	-13353
tch	-13354
▁Cora	-13355
▁idón	-13356
gráficas	-13357
▁Lou	-13358
▁reglam	-13359
▁esquema	-13360
▁invitar	-13361
TIS	-13362
mado	-13363
▁uru	-13364
▁here	-13365
▁Deleg	-13366
▁comenta	-13367
▁escritores	-13368
▁industrias	-13369
gía	-13370
▁disputa	-13371
▁salieron	-13372
▁popularidad	-13373
▁reflexionar	-13374
laza	-13375
angel	-13376
▁sofá	-13377
▁comparar	-13378
▁verdaderamente	-13379
AF	-13380
▁peat	-13381
▁manio	-13382
--------	-13383
▁hubiese	-13384
▁sostenibilidad	-13385
acos	-13386
▁claros	-13387
▁Estu	-13388
ividad	-13389
▁verificar	-13390
▁Hac	-13391
▁bicicletas	-13392
orth	-13393
izante	-13394
▁ayude	-13395
▁estuve	-13396
▁EC	-13397
verde	-13398
▁tome	-13399
▁tour	-13400
▁faltar	-13401
▁57	-13402
▁Ry	-13403
ordia	-13404
▁especialidades	-13405
vida	-13406
▁Lugar	-13407
▁apoya	-13408
▁hermanas	-13409
icada	-13410
▁Destac	-13411
▁gases	-13412
▁Felici	-13413
▁congreso	-13414
▁complicaciones	-13415
▁lan	-13416
▁presta	-13417
▁caballos	-13418
óma	-13419
rece	-13420
▁reunió	-13421
▁medioamb	-13422
PU	-13423
asis	-13424
dela	-13425
▁azo	-13426
▁Joan	-13427
cepto	-13428
▁chanc	-13429
▁Conven	-13430
▁Sosten	-13431
▁quirúr	-13432
▁dada	-13433
▁corona	-13434
ugh	-13435
áus	-13436
▁icono	-13437
▁sanitario	-13438
uss	-13439
▁up	-13440
▁193	-13441
▁Bran	-13442
Gracias	-13443
alizadas	-13444
▁cómodos	-13445
▁refirió	-13446
▁tormenta	-13447
▁Plataforma	-13448
▁spam	-13449
▁flash	-13450
▁jugado	-13451
▁uniforme	-13452
▁reivindic	-13453
▁denominada	-13454
▁FIFA	-13455
▁envejecimiento	-13456
▁nor	-13457
▁colo	-13458
▁cumplido	-13459
▁soldados	-13460
▁aproximada	-13461
uba	-13462
▁(7	-13463
vana	-13464
quete	-13465
▁Group	-13466
▁llaves	-13467
▁ajustar	-13468
▁medalla	-13469
▁Nicaragua	-13470
tail	-13471
▁SAL	-13472
enciar	-13473
▁gluten	-13474
▁Casi	-13475
▁Quizás	-13476
▁adecuadas	-13477
▁brillantes	-13478
▁Trabajadores	-13479
eado	-13480
▁Sea	-13481
▁agrupación	-13482
▁Edad	-13483
ilater	-13484
teriales	-13485
▁vintage	-13486
▁antecedentes	-13487
▁testigo	-13488
▁incluidas	-13489
▁plazos	-13490
gración	-13491
▁incumpl	-13492
▁europeas	-13493
▁innovadora	-13494
bro	-13495
uck	-13496
▁loco	-13497
▁champ	-13498
▁hardware	-13499
gase	-13500
▁asim	-13501
utiliz	-13502
▁famosas	-13503
▁pudimos	-13504
▁COR	-13505
culas	-13506
▁peligroso	-13507
▁embarazada	-13508
▁ilustraciones	-13509
▁competitividad	-13510
dí	-13511
▁350	-13512
▁mier	-13513
FC	-13514
▁IB	-13515
▁corregir	-13516
▁ubicados	-13517
Or	-13518
▁ali	-13519
▁TI	-13520
▁coño	-13521
▁Arturo	-13522
▁impecable	-13523
iÃ	-13524
▁Eco	-13525
huana	-13526
▁aspira	-13527
▁pertin	-13528
▁taza	-13529
▁jejeje	-13530
Cuál	-13531
oooo	-13532
▁ONG	-13533
▁air	-13534
▁contento	-13535
▁busco	-13536
▁reunir	-13537
▁conduce	-13538
86	-13539
▁aprende	-13540
▁estatales	-13541
▁cultivos	-13542
▁secretaria	-13543
ize	-13544
▁azules	-13545
▁atletas	-13546
▁ministerio	-13547
tancia	-13548
▁Youtube	-13549
lab	-13550
icto	-13551
▁Visita	-13552
▁regalar	-13553
▁Cantabria	-13554
▁“¿	-13555
▁wifi	-13556
▁farmacéut	-13557
▁Egip	-13558
▁fino	-13559
▁deter	-13560
▁agrícola	-13561
▁comunicar	-13562
▁asequ	-13563
▁droga	-13564
▁Estrateg	-13565
strucción	-13566
▁Sent	-13567
▁dejará	-13568
▁perdida	-13569
▁ofrecido	-13570
▁prevista	-13571
▁07	-13572
▁personalizadas	-13573
▁manifestaciones	-13574
pm	-13575
▁Kit	-13576
▁urgencia	-13577
bus	-13578
trados	-13579
▁escon	-13580
▁insec	-13581
▁SI	-13582
▁natal	-13583
▁Termin	-13584
iblemente	-13585
▁almuerzo	-13586
▁dimensión	-13587
INE	-13588
tti	-13589
▁bodega	-13590
▁arreglar	-13591
▁54	-13592
▁molienda	-13593
Sta	-13594
▁Dé	-13595
▁faltan	-13596
▁rodeado	-13597
▁enfrentarse	-13598
rección	-13599
▁follar	-13600
▁innovadoras	-13601
▁Pis	-13602
▁refuer	-13603
ueven	-13604
▁capitán	-13605
▁vegetal	-13606
▁conserva	-13607
▁Bienes	-13608
▁armado	-13609
▁Asuntos	-13610
▁;)	-13611
▁MS	-13612
▁Zo	-13613
▁ISBN	-13614
▁Prin	-13615
▁vean	-13616
▁Contiene	-13617
▁integridad	-13618
▁Restaurante	-13619
▁Bob	-13620
iw	-13621
gil	-13622
field	-13623
iciar	-13624
▁vial	-13625
iduría	-13626
▁poemas	-13627
▁SS	-13628
▁alturas	-13629
acao	-13630
gráficos	-13631
▁deliciosa	-13632
▁ER	-13633
idalgo	-13634
quillo	-13635
▁jueces	-13636
▁consiguiendo	-13637
▁parcel	-13638
▁pasará	-13639
▁llantas	-13640
▁definitivo	-13641
▁Up	-13642
▁intes	-13643
▁contener	-13644
▁oscuridad	-13645
▁referentes	-13646
▁Alba	-13647
▁Chil	-13648
▁batal	-13649
▁maestra	-13650
▁inmuebles	-13651
▁MI	-13652
eban	-13653
tuar	-13654
▁Show	-13655
ecución	-13656
▁aviones	-13657
▁Grand	-13658
▁Barran	-13659
▁Molina	-13660
▁líquidos	-13661
▁consejero	-13662
gob	-13663
stein	-13664
▁Tamb	-13665
▁unidos	-13666
▁matemáticas	-13667
▁Gin	-13668
ciendo	-13669
merce	-13670
▁Señora	-13671
▁Bélgica	-13672
▁deseado	-13673
▁configura	-13674
acar	-13675
▁Navarro	-13676
▁ganando	-13677
▁05	-13678
▁ramas	-13679
▁Verano	-13680
▁amplias	-13681
▁Cooperación	-13682
▁MAN	-13683
▁lap	-13684
▁retiro	-13685
▁claridad	-13686
▁taxi	-13687
▁2010.	-13688
gol	-13689
tadura	-13690
▁consa	-13691
▁expand	-13692
▁Smart	-13693
ball	-13694
▁fla	-13695
▁Pach	-13696
▁Autos	-13697
ándolos	-13698
▁ocurrir	-13699
▁yoga	-13700
óticos	-13701
▁austral	-13702
▁patatas	-13703
▁desigual	-13704
km	-13705
eme	-13706
reos	-13707
▁evolu	-13708
▁mensuales	-13709
▁subió	-13710
▁deberás	-13711
▁sanitarios	-13712
€.	-13713
▁LO	-13714
▁Uso	-13715
▁conozco	-13716
▁redacción	-13717
▁virtuales	-13718
Sin	-13719
▁Bet	-13720
▁Ambiental	-13721
▁sustituir	-13722
onto	-13723
acias	-13724
zados	-13725
▁diam	-13726
▁piensan	-13727
scar	-13728
▁vamp	-13729
▁correa	-13730
▁repente	-13731
▁Monterrey	-13732
▁SOL	-13733
unales	-13734
▁2019.	-13735
▁Banda	-13736
▁gloria	-13737
▁acercarse	-13738
▁Alma	-13739
casa	-13740
▁TIC	-13741
▁pensé	-13742
▁Iglesias	-13743
doc	-13744
istán	-13745
landia	-13746
▁nubes	-13747
▁llenos	-13748
▁Sanidad	-13749
▁ero	-13750
▁Obrador	-13751
▁Catedral	-13752
▁aumentando	-13753
▁mandato	-13754
▁conclusiones	-13755
▁administrativo	-13756
▁Zamora	-13757
▁secundarios	-13758
mita	-13759
▁dure	-13760
▁flota	-13761
▁descom	-13762
nea	-13763
▁XD	-13764
▁consol	-13765
▁propuesto	-13766
▁implantación	-13767
▁CS	-13768
▁DIS	-13769
▁brutal	-13770
▁emocionante	-13771
▁FR	-13772
▁Py	-13773
▁disfraz	-13774
pecu	-13775
tiga	-13776
patía	-13777
▁plantel	-13778
▁ampliamente	-13779
igma	-13780
▁Urban	-13781
▁óptimo	-13782
▁Independiente	-13783
▁Nieto	-13784
▁firmar	-13785
▁Evaluación	-13786
JE	-13787
▁free	-13788
▁crip	-13789
▁decimos	-13790
▁sincron	-13791
▁determinadas	-13792
▁agradecimiento	-13793
▁Down	-13794
▁legado	-13795
▁promete	-13796
▁desactivados	-13797
▁CONF	-13798
ámenos	-13799
entalmente	-13800
▁abundante	-13801
mium	-13802
▁invito	-13803
▁criminal	-13804
▁discriminación	-13805
▁defien	-13806
▁confiar	-13807
▁continú	-13808
ándote	-13809
▁soportar	-13810
▁cumpliendo	-13811
▁transportar	-13812
▁Cup	-13813
▁nosotras	-13814
▁Lis	-13815
▁cén	-13816
▁Manz	-13817
▁cens	-13818
▁unen	-13819
▁multin	-13820
▁problemática	-13821
ulario	-13822
▁Mañana	-13823
▁llegamos	-13824
▁Nivel	-13825
▁becas	-13826
▁manuales	-13827
▁sanitaria	-13828
▁Libertadores	-13829
pié	-13830
▁110	-13831
▁Joy	-13832
▁cáp	-13833
▁típica	-13834
▁dedicados	-13835
▁Herramient	-13836
dices	-13837
▁sepa	-13838
▁Podrás	-13839
▁Aprende	-13840
▁simb	-13841
▁decidí	-13842
▁formando	-13843
▁portugués	-13844
▁titulares	-13845
▁territorios	-13846
▁Características	-13847
TEL	-13848
▁58	-13849
pent	-13850
▁Acom	-13851
▁Wall	-13852
▁americana	-13853
▁Tomás	-13854
▁QU	-13855
▁Aguas	-13856
▁extrema	-13857
▁bono	-13858
▁Richard	-13859
ÁS	-13860
▁lógica	-13861
dir	-13862
egue	-13863
▁enfa	-13864
▁silic	-13865
▁cubierto	-13866
▁Contr	-13867
▁escánd	-13868
▁integran	-13869
-19	-13870
cap	-13871
chester	-13872
▁conceb	-13873
▁30%	-13874
íticos	-13875
▁lujos	-13876
▁bacterias	-13877
▁lú	-13878
▁males	-13879
▁satélite	-13880
adra	-13881
▁déb	-13882
▁huelga	-13883
▁directos	-13884
▁Champions	-13885
▁corazones	-13886
▁preciosas	-13887
▁reciclaje	-13888
▁Literatura	-13889
zcan	-13890
pista	-13891
▁barras	-13892
▁855	-13893
▁elige	-13894
▁Chicago	-13895
41	-13896
▁solos	-13897
▁musica	-13898
▁visitado	-13899
▁chu	-13900
▁estimul	-13901
▁divertir	-13902
▁informaron	-13903
str	-13904
uebl	-13905
▁Bla	-13906
▁LG	-13907
▁RAM	-13908
uevas	-13909
▁bellas	-13910
▁finalizó	-13911
▁autónomos	-13912
▁festivales	-13913
▁administrar	-13914
ORMA	-13915
▁14,	-13916
▁impedir	-13917
▁corriendo	-13918
▁sorprende	-13919
sic	-13920
▁Estim	-13921
▁aislamiento	-13922
▁Cum	-13923
▁sube	-13924
▁Rubén	-13925
▁posteriores	-13926
▁Brown	-13927
▁mundiales	-13928
medios	-13929
......	-13930
adáver	-13931
▁2009,	-13932
▁acaban	-13933
Su	-13934
▁Guz	-13935
atina	-13936
▁Televisión	-13937
▁creaciones	-13938
▁1,5	-13939
▁rup	-13940
cusión	-13941
▁rosas	-13942
▁adquirido	-13943
▁procede	-13944
▁Respecto	-13945
grafo	-13946
▁incorporado	-13947
▁Bru	-13948
▁válv	-13949
▁Escal	-13950
▁cemento	-13951
▁colegas	-13952
▁obesidad	-13953
▁biz	-13954
acing	-13955
icket	-13956
▁abarca	-13957
▁Teléfono	-13958
▁Cristiano	-13959
▁celebrada	-13960
▁ejes	-13961
▁vientos	-13962
▁aban	-13963
▁aulas	-13964
hay	-13965
▁acar	-13966
▁cruzar	-13967
TML	-13968
▁140	-13969
▁Unos	-13970
▁Bolívar	-13971
▁obstáculos	-13972
▁dr	-13973
▁Eva	-13974
▁mía	-13975
▁hech	-13976
▁Argentino	-13977
Hz	-13978
▁sexto	-13979
▁Elabor	-13980
▁desarrollará	-13981
▁recomendación	-13982
▁impresionantes	-13983
uria	-13984
ors	-13985
▁poema	-13986
▁averigu	-13987
▁Universitaria	-13988
▁BO	-13989
desde	-13990
▁Móvil	-13991
pertura	-13992
▁Declar	-13993
▁géneros	-13994
▁estancias	-13995
▁off	-13996
▁óptima	-13997
▁Tru	-13998
▁amig	-13999
▁tomo	-14000
▁finanzas	-14001
▁Políticas	-14002
ectar	-14003
▁falda	-14004
▁regula	-14005
▁suceder	-14006
▁dignidad	-14007
▁guión	-14008
▁entusiasmo	-14009
▁añ	-14010
emora	-14011
▁Golf	-14012
▁hacernos	-14013
▁preferencia	-14014
▁bac	-14015
ándoles	-14016
▁Gonzalo	-14017
▁recordado	-14018
reste	-14019
▁lana	-14020
▁Dicho	-14021
▁cruce	-14022
▁crónica	-14023
▁Paseo	-14024
▁Hidalgo	-14025
▁imponer	-14026
▁superado	-14027
▁cambió	-14028
PF	-14029
▁busque	-14030
▁mandíb	-14031
▁presion	-14032
▁princesa	-14033
▁asfal	-14034
▁02	-14035
▁aqu	-14036
▁Niño	-14037
▁fontan	-14038
▁venía	-14039
▁psicología	-14040
▁corporativa	-14041
aching	-14042
▁Saint	-14043
iculares	-14044
▁llevarse	-14045
▁divertidos	-14046
▁exportación	-14047
▁peces	-14048
▁Estilo	-14049
▁Business	-14050
▁sumamente	-14051
▁Che	-14052
▁dram	-14053
▁opos	-14054
▁Coord	-14055
▁mochila	-14056
abellón	-14057
▁Oviedo	-14058
▁estratégica	-14059
▁supuestamente	-14060
PD	-14061
ló	-14062
▁fus	-14063
▁duros	-14064
▁conecta	-14065
▁marihuana	-14066
▁conectividad	-14067
esto	-14068
paro	-14069
▁Cul	-14070
restre	-14071
▁cadáver	-14072
▁intervenciones	-14073
▁(6)	-14074
ather	-14075
▁anón	-14076
▁egres	-14077
▁llego	-14078
▁Seminario	-14079
▁producciones	-14080
▁Bellas	-14081
▁Tienen	-14082
▁Alguien	-14083
▁habitualmente	-14084
▁hura	-14085
▁Fuerzas	-14086
▁exponer	-14087
▁inglesa	-14088
▁ponerte	-14089
▁manifiesto	-14090
▁tecnológicas	-14091
Ca	-14092
▁bebe	-14093
▁nariz	-14094
▁fracaso	-14095
▁parezca	-14096
▁almacenar	-14097
▁milit	-14098
▁discur	-14099
▁empezado	-14100
▁inspirado	-14101
▁parado	-14102
▁pierna	-14103
▁manualidades	-14104
▁sólido	-14105
▁Agustín	-14106
▁surf	-14107
▁util	-14108
▁decis	-14109
▁manifestación	-14110
▁130	-14111
hacer	-14112
▁gastar	-14113
▁ultima	-14114
▁exportaciones	-14115
HO	-14116
PN	-14117
unning	-14118
▁repor	-14119
damente	-14120
▁pensaba	-14121
▁inscripciones	-14122
▁mio	-14123
▁Mexico	-14124
▁Exterior	-14125
▁continúan	-14126
▁atracciones	-14127
▁Ã	-14128
▁160	-14129
▁Bau	-14130
▁seas	-14131
▁Busca	-14132
▁mejorado	-14133
▁innovadores	-14134
▁fusión	-14135
▁redonda	-14136
▁complejidad	-14137
▁preocupa	-14138
▁interesadas	-14139
▁pertenecientes	-14140
▁Paco	-14141
▁invis	-14142
▁veía	-14143
▁confund	-14144
▁torneos	-14145
▁policiales	-14146
▁indicaciones	-14147
▁banca	-14148
▁Pueden	-14149
▁partículas	-14150
España	-14151
▁Cambio	-14152
▁ventil	-14153
▁ocupación	-14154
▁perfectos	-14155
▁Paso	-14156
▁Prepar	-14157
▁Alcalde	-14158
▁Hoteles	-14159
▁déficit	-14160
▁senador	-14161
▁Chaqueta	-14162
▁WiFi	-14163
grimas	-14164
▁Defens	-14165
▁gustar	-14166
▁trayecto	-14167
ken	-14168
▁Quito	-14169
▁comuna	-14170
▁misiones	-14171
▁productivo	-14172
http	-14173
▁crees	-14174
cy	-14175
inarios	-14176
▁habilitado	-14177
▁incertidumbre	-14178
[...]	-14179
ándome	-14180
▁Viajes	-14181
▁candidatura	-14182
▁cé	-14183
▁11,	-14184
▁competitivo	-14185
▁Profesionales	-14186
MT	-14187
▁(8	-14188
ollo	-14189
▁lazos	-14190
▁compañera	-14191
uts	-14192
-643	-14193
ufac	-14194
▁peluqu	-14195
▁primas	-14196
▁Pir	-14197
▁desin	-14198
▁enfrentan	-14199
▁tún	-14200
▁Mari	-14201
▁falla	-14202
▁Margar	-14203
▁tip	-14204
▁sólida	-14205
▁costado	-14206
▁emprendedor	-14207
▁comité	-14208
▁impuso	-14209
▁exhibición	-14210
-895	-14211
▁bonos	-14212
▁saque	-14213
▁comprende	-14214
▁Internacionales	-14215
▁escuchado	-14216
▁encuentren	-14217
▁Agra	-14218
Script	-14219
racción	-14220
▁empezando	-14221
▁procedente	-14222
???	-14223
▁maíz	-14224
▁concursos	-14225
▁compartimos	-14226
▁relativamente	-14227
▁perspectivas	-14228
ígeno	-14229
▁alberg	-14230
▁855-895	-14231
ican	-14232
resa	-14233
▁inac	-14234
▁Andrea	-14235
▁construida	-14236
▁permitirán	-14237
▁855-895-643	-14238
raje	-14239
▁fortuna	-14240
▁Igualmente	-14241
BL	-14242
gers	-14243
▁Raj	-14244
▁agrega	-14245
▁Irlanda	-14246
▁entrenar	-14247
▁encontraban	-14248
▁Reun	-14249
▁sucedido	-14250
▁diagnostic	-14251
▁obviamente	-14252
▁observación	-14253
▁dude	-14254
▁asigna	-14255
▁gustaria	-14256
▁Tig	-14257
▁madura	-14258
▁riguros	-14259
▁CAL	-14260
▁Egipto	-14261
isdic	-14262
▁Miranda	-14263
▁queréis	-14264
▁Vigo	-14265
▁Ries	-14266
▁(+	-14267
▁MU	-14268
▁OF	-14269
▁XVIII	-14270
ucristo	-14271
▁2001	-14272
jalá	-14273
▁soñ	-14274
▁compositor	-14275
▁modalidades	-14276
▁desear	-14277
▁Resumen	-14278
.).	-14279
▁provocó	-14280
cionamiento	-14281
▁Zel	-14282
omosex	-14283
▁reyes	-14284
▁griego	-14285
▁Maestro	-14286
▁elevada	-14287
▁administradores	-14288
COM	-14289
bio	-14290
esc	-14291
▁Cob	-14292
▁Ilust	-14293
▁cubana	-14294
▁Alum	-14295
▁irán	-14296
ciende	-14297
▁Linux	-14298
▁lidera	-14299
▁terremo	-14300
▁reacciones	-14301
▁foco	-14302
▁ritu	-14303
▁Enter	-14304
▁Pob	-14305
▁bail	-14306
▁fieles	-14307
▁queden	-14308
▁Federico	-14309
▁supervivencia	-14310
▁pez	-14311
▁Series	-14312
▁podréis	-14313
▁sensibles	-14314
▁provenientes	-14315
▁FO	-14316
▁darles	-14317
▁contribuye	-14318
enio	-14319
▁Vil	-14320
▁olímp	-14321
▁parto	-14322
estima	-14323
▁Café	-14324
▁fichero	-14325
▁actualiza	-14326
gues	-14327
▁gesto	-14328
▁compartió	-14329
vic	-14330
▁colombianos	-14331
▁Tú	-14332
▁oy	-14333
▁Juz	-14334
▁Camil	-14335
▁conlleva	-14336
▁Investigaciones	-14337
pul	-14338
▁muros	-14339
▁santa	-14340
▁tapas	-14341
▁cálido	-14342
▁porqué	-14343
▁presentando	-14344
▁rú	-14345
▁tío	-14346
END	-14347
ruecos	-14348
▁triple	-14349
▁Esteban	-14350
▁DJ	-14351
terest	-14352
▁American	-14353
▁repuesto	-14354
@@@@	-14355
▁Chat	-14356
osidad	-14357
▁Ávila	-14358
▁pasados	-14359
▁publico	-14360
▁soledad	-14361
▁extremos	-14362
▁impresora	-14363
urio	-14364
▁2002	-14365
intana	-14366
lación	-14367
▁Ibero	-14368
▁School	-14369
▁trabajó	-14370
▁pelicula	-14371
▁incendios	-14372
900	-14373
▁impide	-14374
ONA	-14375
ijón	-14376
▁pot	-14377
▁desvel	-14378
▁huesos	-14379
cepti	-14380
▁jugo	-14381
▁registra	-14382
▁horizontal	-14383
EZ	-14384
onaldo	-14385
▁mural	-14386
▁secos	-14387
▁exigir	-14388
▁Espíritu	-14389
▁Hun	-14390
gante	-14391
▁muertes	-14392
▁terminales	-14393
▁resaltó	-14394
▁botellas	-14395
▁efectuar	-14396
▁€.	-14397
▁tern	-14398
▁2008,	-14399
▁solares	-14400
feo	-14401
▁Beach	-14402
▁Jordi	-14403
▁Mérida	-14404
▁precisó	-14405
▁ilim	-14406
▁encuestas	-14407
▁gratuitas	-14408
pue	-14409
yac	-14410
Madrid	-14411
▁Polar	-14412
▁lingü	-14413
▁Dispone	-14414
▁japones	-14415
▁afectada	-14416
▁cerámica	-14417
▁contemporánea	-14418
citas	-14419
▁mínimos	-14420
▁experimentado	-14421
ARC	-14422
guayo	-14423
jando	-14424
▁modi	-14425
ánicas	-14426
▁12.	-14427
▁casero	-14428
▁haciénd	-14429
▁advirtió	-14430
écdo	-14431
▁ola	-14432
▁amateur	-14433
▁estupenda	-14434
fel	-14435
▁amortigu	-14436
▁continuamente	-14437
ANO	-14438
▁porte	-14439
▁concesion	-14440
ajos	-14441
tics	-14442
edrez	-14443
▁Gris	-14444
imenea	-14445
▁Matem	-14446
alición	-14447
▁Medidas	-14448
▁estructur	-14449
▁canad	-14450
▁Jane	-14451
▁Ponte	-14452
▁asust	-14453
▁tacón	-14454
▁alarma	-14455
▁salarios	-14456
▁micró	-14457
▁consideración	-14458
▁Enc	-14459
▁humo	-14460
▁chinos	-14461
▁destinada	-14462
dujo	-14463
▁Fox	-14464
▁Tin	-14465
▁ara	-14466
▁refugio	-14467
▁protector	-14468
idió	-14469
▁carnes	-14470
▁entendemos	-14471
▁inspección	-14472
ogía	-14473
ubric	-14474
▁borr	-14475
▁apetece	-14476
▁sucedió	-14477
IENTO	-14478
govia	-14479
▁Paris	-14480
▁virtud	-14481
éster	-14482
▁sender	-14483
▁extiende	-14484
▁servirá	-14485
ogén	-14486
ulsión	-14487
▁signo	-14488
▁Género	-14489
▁épocas	-14490
▁pedagóg	-14491
esas	-14492
▁Vera	-14493
▁deterioro	-14494
▁Feliz	-14495
▁proponemos	-14496
▁funcionando	-14497
▁Alimentación	-14498
▁125	-14499
▁Lev	-14500
▁supo	-14501
▁filas	-14502
▁Militar	-14503
▁fachadas	-14504
▁cristales	-14505
▁constitucional	-14506
odia	-14507
▁saca	-14508
▁caído	-14509
alleros	-14510
▁surgió	-14511
▁pensiones	-14512
▁judiciales	-14513
úme	-14514
ilados	-14515
▁bolsos	-14516
▁Turquía	-14517
▁concurr	-14518
▁alimentaria	-14519
▁promocionar	-14520
▁Mantenimiento	-14521
▁crudo	-14522
▁electo	-14523
▁51	-14524
ject	-14525
▁Danza	-14526
▁remedio	-14527
▁sensibil	-14528
ulla	-14529
▁Mediterráneo	-14530
▁tob	-14531
▁texturas	-14532
▁Gor	-14533
▁irse	-14534
▁almoh	-14535
▁sucur	-14536
▁ascensor	-14537
▁profundamente	-14538
▁80%	-14539
▁Pack	-14540
icioso	-14541
▁ética	-14542
▁microondas	-14543
PM	-14544
▁revesti	-14545
▁acced	-14546
oroeste	-14547
▁fabrica	-14548
▁cort	-14549
▁carbón	-14550
▁excusa	-14551
▁Acuerdo	-14552
▁aportando	-14553
▁residencial	-14554
reza	-14555
▁Nex	-14556
ism	-14557
▁indemn	-14558
▁tercio	-14559
▁hombros	-14560
▁trasladado	-14561
ava	-14562
▁evacu	-14563
▁adoptar	-14564
▁traspas	-14565
▁favorece	-14566
▁atracción	-14567
▁coca	-14568
▁jaja	-14569
▁cargas	-14570
▁comodidades	-14571
precio	-14572
tificar	-14573
▁elenco	-14574
▁fantástica	-14575
anca	-14576
apro	-14577
▁Hua	-14578
▁CONS	-14579
▁Recor	-14580
▁nevera	-14581
▁House	-14582
▁parking	-14583
▁tristeza	-14584
▁Prostitutas	-14585
Pue	-14586
▁66	-14587
▁amplios	-14588
▁resaltar	-14589
▁jazz	-14590
▁tí	-14591
▁DOC	-14592
▁Ortiz	-14593
▁acercar	-14594
▁compartiendo	-14595
▁53	-14596
▁INTER	-14597
▁estrenar	-14598
▁depósitos	-14599
▁end	-14600
▁vist	-14601
▁sustancia	-14602
▁infecciones	-14603
▁chic	-14604
ierro	-14605
▁remar	-14606
▁expediente	-14607
▁Jan	-14608
omina	-14609
▁Base	-14610
▁Botas	-14611
▁perdón	-14612
▁sueldo	-14613
▁smartphones	-14614
CS	-14615
▁Rena	-14616
wei	-14617
▁11.	-14618
▁adi	-14619
Tienes	-14620
▁Andre	-14621
▁preparada	-14622
▁manipulación	-14623
▁monte	-14624
▁Montes	-14625
▁adaptado	-14626
CU	-14627
▁reaf	-14628
▁camina	-14629
ramiento	-14630
▁compacto	-14631
▁Ball	-14632
▁fortaleza	-14633
▁venezolana	-14634
▁Vázquez	-14635
▁trataba	-14636
▁semifinales	-14637
arch	-14638
hist	-14639
▁Ultra	-14640
▁tirar	-14641
▁Letras	-14642
▁vinilo	-14643
▁aparentemente	-14644
itcoin	-14645
▁Nuevos	-14646
▁Secund	-14647
▁reembol	-14648
▁típicos	-14649
▁recibirán	-14650
▁sabiduría	-14651
load	-14652
▁Eugen	-14653
▁preocupaciones	-14654
“.	-14655
▁Km	-14656
▁Design	-14657
▁Guzmán	-14658
▁molestias	-14659
Val	-14660
▁Farm	-14661
▁Compañía	-14662
▁recurrir	-14663
try	-14664
áceres	-14665
▁esmal	-14666
recha	-14667
▁whats	-14668
▁Racing	-14669
▁haría	-14670
▁piano	-14671
▁Emilio	-14672
▁inalámbr	-14673
▁pc	-14674
unar	-14675
▁estatu	-14676
▁Nadie	-14677
▁lavan	-14678
estidos	-14679
▁compradores	-14680
▁protagonismo	-14681
▁Gay	-14682
▁anh	-14683
▁inda	-14684
▁rastre	-14685
▁evangel	-14686
▁introduci	-14687
▁bomberos	-14688
▁intendente	-14689
▁Sino	-14690
▁Lucía	-14691
▁Ira	-14692
ciosa	-14693
▁coher	-14694
▁Amigos	-14695
▁roj	-14696
▁Lunes	-14697
▁lavar	-14698
▁escasos	-14699
▁vendedor	-14700
▁fanáticos	-14701
▁Lanz	-14702
▁tráiler	-14703
▁traducir	-14704
▁fidelidad	-14705
▁ingeniero	-14706
▁básicamente	-14707
▁04	-14708
▁láp	-14709
Quer	-14710
▁Jar	-14711
▁subsid	-14712
alizaciones	-14713
▁ingenieros	-14714
jam	-14715
uce	-14716
▁Tac	-14717
▁hero	-14718
▁Clara	-14719
▁robar	-14720
sto	-14721
▁Arena	-14722
▁Segundo	-14723
▁Prueba	-14724
▁renuncia	-14725
▁Castellón	-14726
▁descargas	-14727
▁recibiendo	-14728
▁reputación	-14729
Tu	-14730
▁Siria	-14731
▁Terra	-14732
▁influen	-14733
guard	-14734
▁Chia	-14735
▁tuviera	-14736
▁delegado	-14737
▁plenamente	-14738
▁fortalecimiento	-14739
ñe	-14740
TAR	-14741
pool	-14742
▁Histórico	-14743
▁Seleccion	-14744
▁supervisión	-14745
panish	-14746
▁nervios	-14747
acoa	-14748
▁Autom	-14749
▁rodilla	-14750
▁adopción	-14751
uerta	-14752
▁oculta	-14753
▁asimismo	-14754
ury	-14755
▁quita	-14756
▁Jesucristo	-14757
▁Publicidad	-14758
▁reproducir	-14759
▁sufrimiento	-14760
ague	-14761
▁Miss	-14762
▁variada	-14763
▁escribiendo	-14764
trad	-14765
▁Talleres	-14766
▁conjuntos	-14767
▁Opin	-14768
▁papá	-14769
▁satisfecho	-14770
▁proviene	-14771
witch	-14772
▁verán	-14773
▁desgracia	-14774
▁personalidades	-14775
hen	-14776
▁anécdo	-14777
▁salvaje	-14778
▁discutir	-14779
▁proteína	-14780
▁Morena	-14781
▁citado	-14782
▁integrante	-14783
irte	-14784
ázar	-14785
▁intentó	-14786
▁sincer	-14787
▁Vig	-14788
▁alu	-14789
▁HTML	-14790
▁Piso	-14791
▁riego	-14792
▁locura	-14793
▁homosex	-14794
▁sanción	-14795
▁perdiendo	-14796
▁Jalisco	-14797
TT	-14798
▁Finanzas	-14799
▁logotipo	-14800
▁consultoría	-14801
▁Veh	-14802
tenos	-14803
▁proclam	-14804
▁valenci	-14805
▁continuará	-14806
▁desaparecido	-14807
▁Jaén	-14808
▁Equipos	-14809
▁solv	-14810
▁sexta	-14811
▁Académ	-14812
▁cincuenta	-14813
▁confiable	-14814
QUE	-14815
▁ego	-14816
▁Confe	-14817
▁deciden	-14818
▁afiliados	-14819
▁aprendiendo	-14820
AND	-14821
▁Adap	-14822
▁tacto	-14823
▁jugará	-14824
die	-14825
▁Tuc	-14826
[...]
